conv_1_param_0 14.968693 26.802967 13.569283 11.813953 10.968961 31.111961 7.049436 14.184991 14.111111 22.207651 15.882755 13.799661 7.409298 54.596138 42.113991 21.403555 
conv_2_param_0 190.407028 421.549438 166.408188 93.224373 75.521484 133.382568 304.919098 229.361557 125.650238 457.110718 92.891426 487.984985 489.822968 154.176651 211.804565 272.923401 77.134048 324.916931 363.516418 77.271538 122.686790 223.834763 50.641743 191.247055 76.588928 309.638092 127.248535 192.806519 96.260551 467.798553 104.205132 254.621628 
conv_3_param_0 334.098907 165.035538 101.283485 303.495911 92.560852 146.615555 222.684937 171.228439 309.453888 147.949936 571.012085 104.708534 265.946838 257.520782 164.305756 245.142319 260.226105 228.354691 164.513596 138.348938 201.468628 89.874222 283.328979 148.796341 177.297882 254.871140 249.852066 137.181427 228.555359 276.550781 227.954422 166.089401 
conv_4_param_0 368.046387 255.613495 228.168915 104.679306 605.368286 451.470215 565.909729 125.346497 
conv_5_param_0 4.926133 4.396676 6.234093 3.054657 3.977945 4.632808 2.677463 3.888290 6.258675 4.836076 4.004036 3.066461 3.015198 3.064093 3.950224 2.729023 
conv_6_param_0 606.637878 286.923340 374.238861 296.743866 150.431458 174.678314 359.496887 441.214600 336.476074 304.028046 241.724915 407.035980 288.354767 166.621399 334.528625 179.872757 321.304504 131.494446 526.243774 318.745087 242.400742 196.595612 254.248291 186.048645 428.141571 211.632217 351.718719 177.177109 257.266083 415.488831 291.587433 142.831406 311.305817 351.243744 117.797104 293.562073 290.447784 173.744827 252.765793 337.567810 152.281036 195.267273 365.047028 339.550903 278.475372 260.747864 302.261475 349.591400 407.993713 228.154388 374.238861 638.272400 199.920059 499.224579 261.403015 285.192993 279.372711 286.923340 356.540100 333.456421 272.637329 248.657745 211.116882 356.052032 
conv_7_param_0 1237.079712 804.627991 582.195862 769.514771 529.727112 334.528625 742.071350 1241.508301 1352.026001 1138.898682 189.023254 1532.229736 658.470886 198.698242 588.119812 1013.032104 156.120041 1118.091309 1013.032104 514.532166 586.131836 1338.114502 1570.390991 1224.701538 1037.272217 832.973572 1302.922974 554.575684 555.167542 590.791626 610.912537 1259.544800 443.093689 1823.635376 1318.610840 151.130737 1472.588867 1461.213501 1121.103394 529.457520 703.913391 620.754150 671.215454 952.732605 809.007751 646.602844 576.709534 414.165619 1446.987427 820.492126 551.635193 1261.071533 735.253723 605.578552 968.700195 1283.632324 813.435486 1459.164062 462.392883 819.845520 547.858887 928.914307 1382.570068 539.338501 
conv_8_param_0 487.984985 240.384476 291.097931 385.042206 248.420242 268.416931 344.270020 172.936172 268.694214 177.782639 322.299866 454.316162 243.992493 447.284607 292.900909 128.442474 244.681091 335.607727 157.633942 267.450897 121.200371 244.451126 219.675674 303.318939 173.744827 225.581955 370.507111 244.451126 105.472832 267.450897 458.318939 216.386017 505.531586 278.326385 517.861633 206.589355 462.804260 510.994110 355.322418 567.895203 141.510330 404.503876 249.372955 289.962097 420.867310 508.496582 244.911484 710.644836 480.768951 253.752197 433.132385 459.127991 470.336334 460.346893 238.183151 594.845032 449.993073 334.313629 307.623901 467.378265 501.148376 297.082825 318.745087 393.191223 
conv_9_param_0 92.615608 92.548103 149.471451 118.117210 39.630463 72.145454 96.928246 65.893097 40.438217 53.486099 43.724518 52.906666 95.255814 46.206696 116.491745 56.837959 
conv_10_param_0 63.967758 58.460403 53.306465 49.445484 26.431307 47.414490 67.325554 33.806175 69.843788 44.335194 18.520420 49.990551 75.133728 49.794510 65.858925 29.584343 60.464764 45.806637 43.101154 53.894737 41.740959 40.749680 28.368185 47.915470 25.808130 82.666664 30.174906 59.557224 76.769043 53.803391 40.749680 74.124924 
conv_11_param_0 299.995392 271.782654 141.664490 213.368332 201.937881 235.168167 195.267273 297.082825 245.605286 120.192238 224.414154 261.403015 268.972076 174.327072 364.535400 253.504868 252.520386 249.852066 234.955734 234.109818 252.765793 410.246063 234.532013 252.031006 253.258026 396.790222 132.905472 234.532013 210.433655 247.004745 330.700562 232.228577 492.606049 209.417068 415.488831 527.845764 375.318909 232.228577 201.468628 217.108521 467.798553 209.924133 291.097931 359.745514 164.098419 193.956741 105.216827 237.313873 239.058823 223.642303 333.670288 391.121796 472.043549 183.943420 184.858566 351.006744 321.304504 231.402130 261.009521 378.321442 250.574188 292.571442 571.953796 516.832581 195.267273 232.228577 410.246063 232.436096 164.826355 139.686356 135.820358 140.973434 167.156815 169.003250 233.689133 423.609131 171.003281 226.170441 371.035675 229.159470 226.564453 101.758995 253.504868 226.761993 292.736084 351.481079 302.085938 297.422516 233.479355 277.731995 151.306580 239.278748 157.825241 293.562073 118.548767 196.003021 172.936172 135.255325 328.611511 259.836151 261.403015 156.778778 256.758148 305.995300 229.361557 954.480713 294.893433 180.747742 415.157227 240.829636 359.000702 561.459229 267.450897 199.154678 294.226257 310.377075 187.119431 175.503372 205.935074 145.305023 145.630463 206.918060 278.475372 437.503784 232.228577 305.995300 113.977211 228.756378 
conv_12_param_0 412.850800 360.743408 357.029510 549.595337 192.663696 408.955963 303.142181 738.909119 351.956696 214.955368 327.989899 322.900055 326.753754 434.579773 367.626862 406.082733 237.530594 1015.008789 340.662750 821.139709 281.184875 693.127258 311.865723 852.773743 493.540802 499.224579 1084.298096 686.269104 793.580444 268.972076 388.783264 559.346252 1067.608032 211.288376 241.276443 781.655884 446.133789 397.093140 388.202972 459.533569 470.336334 510.994110 400.147705 428.494232 718.001404 472.901825 402.003082 688.540039 739.434265 1064.331421 471.188416 915.025513 268.416931 283.328979 477.240356 317.965759 569.449341 571.953796 457.915497 911.817688 475.061188 343.361053 809.007751 440.094757 335.607727 306.175385 500.184601 353.151398 845.840637 504.550934 792.371643 311.305817 662.243164 302.613159 758.297363 355.565277 505.531586 274.218231 595.526062 491.210571 387.047607 334.313629 373.701141 347.954529 410.246063 333.884460 412.523407 958.879272 275.379578 291.097931 483.899536 653.097290 915.830994 379.148682 219.490295 866.986694 318.354950 411.218964 495.420959 494.949585 581.544983 904.681763 436.402679 469.064026 430.266327 293.727844 304.740479 354.113007 363.770630 276.992554 756.093018 431.336639 333.029449 403.562439 712.104065 513.769897 731.634338 605.931274 814.071960 343.587860 411.870148 323.301422 598.609924 431.336639 367.367218 349.826508 436.769104 495.893219 
conv_13_param_0 192.806519 120.192238 154.634964 124.567047 170.778732 181.631287 133.794235 217.108521 145.467560 195.560898 153.177856 180.496872 127.874138 163.891617 69.507217 132.905472 217.835846 232.644012 257.138916 268.002075 114.883392 267.450897 192.949554 148.626282 82.780396 151.836548 191.952774 233.479355 152.014023 151.042969 175.978348 220.420334 117.797104 128.315735 146.863922 106.947365 144.658508 207.413071 175.503372 129.788422 112.013779 144.497772 258.673309 211.632217 179.872757 231.814621 90.248436 255.371628 167.264313 248.895691 110.491081 175.148819 158.305542 248.420242 143.699448 172.591904 140.062469 96.546402 221.170074 136.676819 108.917923 169.997391 93.897476 128.951904 232.228577 106.684166 196.744324 236.450912 144.177383 251.057922 280.426941 153.177856 180.246704 283.174744 207.082809 82.570160 49.636642 208.912445 269.250519 273.929443 169.554108 118.225456 85.840263 102.480690 285.349426 246.536499 245.837433 345.413025 199.460129 175.148819 156.307693 222.114426 207.744415 140.897079 171.680527 178.760132 272.209320 208.912445 219.305222 142.988449 112.693237 135.749481 184.596161 119.200737 220.233704 179.376556 143.145844 241.052826 174.093704 151.925232 255.121140 296.743866 268.972076 238.401474 142.988449 299.477264 223.642303 312.803375 192.094528 198.395111 266.628387 141.356522 199.460129 296.405701 88.108398 299.132843 110.867859 270.089294 
conv_14_param_0 289.478027 286.449341 363.770630 398.614563 298.617676 338.226257 366.849091 331.966827 267.313477 454.316162 465.288025 270.933319 450.382690 314.315399 448.055115 435.307098 365.817169 650.239990 277.287842 396.487793 358.012390 483.449829 336.476074 341.781860 301.910614 393.786530 573.530334 583.174866 398.309357 460.754639 415.157227 533.804016 
conv_15_param_0 44.150208 32.129555 36.529343 59.725307 68.709953 48.024204 53.849026 46.923874 41.360260 69.385796 42.638012 88.239052 40.182278 82.451950 113.371429 58.299358 112.467674 56.333630 100.694687 70.817627 48.060558 56.991024 79.509079 104.078690 67.041183 76.676331 42.017208 60.064335 85.161636 43.306957 55.496502 37.790478 
conv_16_param_0 75.761337 79.260925 72.516273 89.168541 106.523491 53.531197 34.768894 83.646904 63.203583 85.333336 46.106026 84.820305 145.198395 79.509079 41.092556 51.826939 40.055519 70.036407 62.030289 102.317490 62.334805 61.698738 57.247971 101.337593 56.184071 50.709267 69.046219 90.245911 85.218788 101.095543 89.609032 77.377213 
conv_17_param_0 160.830902 131.038177 142.910522 99.433044 157.148514 122.919655 59.390083 178.713577 130.298615 64.194138 68.933769 84.594269 231.708023 113.371429 60.754066 123.277672 175.745331 59.058605 165.765015 101.662132 169.981262 134.366135 166.963837 96.928246 138.847458 147.646515 158.225540 123.637779 86.378235 116.491745 92.078316 70.896706 
conv_18_param_0 50.790401 39.729664 55.887325 41.658794 53.757832 56.134396 50.347343 38.524273 79.558899 46.648052 24.742010 55.985889 66.549263 30.117647 28.444445 32.342335 49.911949 48.874519 35.848675 62.488190 28.495512 71.656883 40.207726 51.035370 48.427155 39.904461 50.994377 62.642330 44.027740 77.756279 44.804516 69.385796 
conv_19_param_0 142.206665 126.260193 86.640907 132.905472 127.560570 135.607925 148.881516 237.097534 160.950500 193.236252 144.257355 159.177475 161.149933 151.659470 52.565884 109.284035 137.036880 118.333031 135.325699 173.166443 142.909897 80.375771 89.318680 184.858566 154.451309 150.170898 136.533340 138.055206 171.793930 211.460159 124.926033 111.821152 
conv_20_param_0 351.481079 253.504868 482.552887 298.789215 286.291687 160.553085 330.910950 359.994476 344.498016 519.412903 421.208099 143.699448 338.446320 417.824890 393.191223 212.844513 292.406982 274.507660 446.516724 384.757385 257.266083 390.827942 346.563629 416.486786 327.989899 411.870148 164.721970 314.505432 301.211334 282.559479 412.523407 282.099792 195.267273 276.845123 389.074036 354.113007 464.872192 337.130280 421.891327 364.280121 381.093048 379.979553 481.213684 446.133789 323.100616 275.963928 326.548645 388.202972 308.170624 472.901825 292.900909 344.042328 247.946609 327.164795 379.425232 455.509644 377.497833 315.842133 351.956696 532.983582 311.865723 498.268188 348.187408 188.612045 
conv_21_param_0 197.341431 324.714111 159.764130 238.183151 299.132843 473.763214 347.026031 350.297638 357.766174 255.497055 317.771545 243.763824 316.226135 275.817596 268.278503 264.056854 316.418488 437.503784 380.257324 179.872757 202.094788 347.721924 467.798553 310.933655 487.527649 224.414154 215.489639 268.278503 315.842133 171.907471 221.170074 368.147217 229.969940 383.057434 172.591904 354.354218 573.214355 270.792297 301.037048 302.789276 229.766785 188.475357 461.163116 194.391632 420.527069 319.724640 950.990845 379.979553 371.565704 500.184601 338.446320 497.315491 376.677765 284.568939 427.087036 331.966827 341.333344 305.277008 234.109818 184.596161 440.840668 177.177109 290.610046 244.451126 370.243408 265.404083 327.783234 199.613205 232.228577 151.925232 236.666061 345.642517 245.605286 407.673981 419.171631 203.358871 323.502502 214.070786 406.399994 338.887299 233.479355 475.930481 310.007141 318.160248 417.824890 343.587860 452.734558 586.131836 389.949036 307.260498 181.125351 483.899536 313.936035 453.919708 300.689026 356.052032 484.350098 323.703796 516.063477 173.166443 310.747894 568.205322 380.814056 547.858887 407.993713 211.977173 217.108521 303.142181 443.471436 559.647095 361.495483 302.437195 255.874084 459.939880 238.839310 287.240204 191.669861 322.100311 272.494507 458.723114 527.043579 344.954895 401.382721 322.699738 324.107178 353.151398 492.606049 518.377686 
conv_22_param_0 198.243896 832.307190 419.509674 574.163330 635.931519 689.909790 342.908386 1519.918213 522.281128 641.420471 589.118896 616.706604 368.930511 729.582031 641.816162 669.057251 532.710693 714.059021 902.327820 570.698853 813.435486 886.187378 866.986694 1060.534180 629.772400 817.911926 672.517151 814.709473 770.654785 847.908691 509.492645 901.545898 544.133911 483.000916 478.998169 344.726318 458.318939 405.133942 419.171631 554.575684 414.165619 656.393677 755.543945 451.947876 501.631622 939.822937 360.743408 662.243164 606.991821 763.304504 595.867126 1079.236572 639.056519 502.600952 1026.525879 743.662598 476.366302 469.911469 393.191223 632.836975 1111.521362 557.846619 610.195923 470.761993 496.366425 622.984436 545.560547 954.480713 496.840485 951.860962 869.159546 974.142334 971.413635 386.759857 426.037689 687.175720 508.994141 393.488647 456.308777 575.115540 659.723511 458.318939 205.284927 522.806030 455.111115 741.014221 957.996338 707.744202 719.491028 418.497192 347.257690 687.629883 428.494232 777.566528 623.357727 547.858887 848.600342 552.220825 442.340149 723.493713 594.165649 438.240936 366.332397 590.121399 1277.328369 601.378052 549.595337 1140.771973 866.986694 788.767273 419.171631 544.989014 893.800659 735.253723 885.433167 709.191528 389.074036 484.801483 376.133057 621.495789 342.456879 633.993896 533.804016 777.566528 1087.698853 565.426086 901.545898 802.765442 613.072510 591.127258 540.459229 832.307190 859.821472 798.452820 336.911926 532.438049 534.078003 554.280212 471.188416 501.148376 484.801483 746.329956 703.437439 365.047028 528.650391 381.652252 1020.484558 372.363647 739.960144 819.845520 643.403809 561.156433 662.243164 710.644836 487.071167 977.804504 385.042206 498.745911 656.393677 325.730743 610.912537 400.147705 495.893219 456.308777 562.978333 1250.461548 702.487488 430.622528 637.881042 767.244812 909.426575 633.993896 383.905548 716.517883 744.194580 700.595276 794.792969 412.196503 870.614197 1173.586060 454.713287 729.582031 686.722107 727.032837 864.106323 861.958557 653.918274 942.376831 469.911469 713.569275 1154.699219 439.722748 769.514771 470.761993 406.399994 788.767273 788.767273 591.127258 558.145935 924.785767 955.357239 875.007568 772.945007 555.760681 964.211304 390.241547 724.501404 447.284607 799.680237 696.374817 549.015320 486.160736 759.404358 1057.300781 454.316162 633.222168 571.639587 612.711426 600.683594 675.574036 681.771973 653.097290 1115.693237 489.822968 820.492126 567.275879 515.807617 652.278381 706.302795 623.731445 475.495422 494.479095 666.912842 467.378265 433.493347 449.604156 551.050842 550.759155 488.443207 772.945007 580.895569 840.374817 556.652771 980.569275 707.744202 530.808167 656.393677 619.276184 550.759155 445.369873 880.934814 902.327820 447.284607 307.260498 491.210571 493.540802 
conv_23_param_0 262.458130 247.710480 253.504868 254.124084 250.815811 281.336945 265.675171 204.800003 235.380997 224.414154 242.626862 202.566971 193.956741 243.535583 222.494446 225.777771 196.003021 275.525421 261.271729 259.966003 247.239548 135.678665 256.504944 121.996246 238.620178 213.894730 140.820786 216.386017 277.435730 289.478027 133.451004 274.797668 228.555359 224.414154 302.789276 215.489639 254.248291 169.775452 201.468628 201.468628 184.727280 185.121704 125.287094 161.550308 234.109818 289.962097 232.644012 259.576843 222.304276 177.904236 169.003250 275.088318 189.989777 273.641235 233.689133 218.384552 170.442993 234.743683 258.416290 228.354691 238.620178 304.562073 262.855988 152.997650 257.903809 218.936020 243.307770 256.000000 152.102921 128.000000 208.744781 229.766785 269.949158 297.592682 194.101486 151.571091 164.930878 256.631470 142.051331 214.247116 204.317368 284.724670 196.003021 265.539551 224.802078 174.913254 184.073608 237.313873 261.929504 257.393372 131.229065 211.288376 246.770401 58.898552 267.726196 308.170624 240.384476 190.686218 253.011673 133.588089 307.623901 140.137924 264.056854 284.102661 162.763458 123.855240 227.754822 302.261475 294.226257 258.031738 168.346924 247.946609 220.982162 176.936050 170.219894 227.954422 264.863556 136.390137 293.231110 149.566422 301.037048 235.594208 259.059753 186.048645 220.607300 171.454193 268.002075 190.407028 479.439636 209.754837 291.097931 279.974152 296.236908 344.498016 211.632217 158.305542 169.003250 291.260925 199.460129 389.656921 234.532013 186.181824 218.936020 277.731995 232.021408 240.606842 211.804565 172.821259 190.267746 296.236908 179.624313 157.921066 197.942154 256.000000 232.021408 386.759857 143.461670 158.788773 199.766510 219.120468 214.247116 367.886841 274.942932 203.199997 258.802002 178.147949 207.082809 342.231567 198.395111 263.655334 239.940964 246.303024 241.276443 402.313995 261.140564 261.929504 291.914703 285.506042 320.512634 175.740540 251.543518 243.307770 309.638092 167.912201 445.751495 223.450165 158.401947 168.238037 286.923340 180.622223 192.236511 271.498962 189.574341 203.041367 200.382126 282.866760 204.477982 189.160721 206.918060 265.133545 150.084244 259.318054 290.123810 195.120773 262.325775 167.371948 226.170441 228.555359 245.605286 236.450912 138.940170 296.405701 275.088318 318.940521 266.765137 419.171631 223.258362 292.900909 278.624542 231.814621 471.188416 260.226105 321.503082 349.826508 242.853409 184.858566 284.257935 221.924911 299.649780 225.386475 338.887299 133.725449 248.420242 292.900909 370.243408 296.574677 199.307281 237.530594 257.648346 256.758148 142.440308 243.763824 114.883392 209.080383 264.056854 183.943420 303.318939 223.066895 281.794159 268.140198 210.263535 237.530594 244.451126 191.669861 250.092300 247.239548 
conv_24_param_0 432.412292 309.822510 421.549438 414.495605 254.871140 362.503143 394.084839 386.472504 306.355713 325.119995 519.153687 428.494232 229.766785 420.187408 408.313965 458.723114 278.475372 281.641571 241.500458 456.308777 172.821259 464.457153 456.308777 380.257324 276.257050 313.557556 487.984985 419.848267 484.801483 552.514099 647.005005 308.719299 444.228851 453.128906 434.943146 223.642303 483.449829 378.321442 180.747742 498.268188 329.652710 338.226257 397.093140 196.744324 316.611084 461.163116 692.665771 451.947876 337.348907 321.106171 315.459076 464.457153 491.210571 208.076797 272.637329 266.902008 235.594208 239.278748 396.790222 72.896858 385.613037 246.303024 263.789032 308.536194 
conv_25_param_0 54.263248 70.307861 40.361092 51.365696 51.035370 48.912174 77.001816 52.426094 84.990631 42.523777 60.121212 33.591534 48.133434 54.589855 72.807343 112.667259 56.787121 53.621620 54.920414 79.558899 72.932800 42.897297 30.377033 57.093525 57.196396 71.535774 52.687138 43.101154 81.238640 38.524273 41.414219 31.228725 45.674820 116.920807 90.503204 40.207726 31.445271 50.148499 42.897297 58.894249 50.387302 51.241325 64.816742 63.519760 50.387302 84.481705 96.266869 60.121212 28.469955 122.563705 77.283020 90.181816 50.588047 67.504517 62.121330 111.382454 74.735725 45.478512 86.613914 73.694717 70.307861 101.825180 60.292496 33.520592 
conv_26_param_0 155.227386 194.301453 137.867538 150.713348 120.699623 104.938843 38.783138 130.031754 128.975113 150.001175 76.583839 121.741135 93.022713 91.087517 68.821678 104.679306 87.388847 134.295074 101.015114 212.334442 142.589554 105.989983 48.060558 174.297867 146.962967 126.155983 157.930344 153.538086 121.276024 109.085907 303.588776 144.290909 109.367783 114.187050 76.491570 156.278152 124.486275 85.276024 153.260101 142.589554 121.276024 82.990852 176.600830 96.559692 74.956314 208.842102 203.650360 109.085907 177.713089 65.552917 73.396530 53.531197 69.347900 103.569328 118.780167 101.906898 129.699692 107.972786 138.847458 47.951660 179.980148 120.356400 68.747154 114.702797 
conv_27_param_0 172.756470 179.091675 192.826126 113.371429 58.894249 154.472015 133.238190 96.854309 150.534683 125.099510 99.277557 147.560715 213.405045 112.268791 101.095543 168.626831 213.584518 130.970596 125.905800 263.572388 100.376282 124.914902 115.118767 146.708267 198.245117 197.936081 186.181824 121.857964 123.158096 195.047623 86.791527 218.735565 87.148933 156.857315 174.777695 57.611614 244.419632 128.388275 498.433746 157.734161 183.889938 196.405258 84.145790 145.781860 111.676338 110.031197 493.110687 150.982162 108.898796 220.062393 144.045380 114.702797 128.388275 124.121216 118.117210 76.676331 269.302216 243.482269 102.981346 146.285721 92.011597 90.891914 50.588047 160.121063 
conv_28_param_0 99.902435 124.547325 110.413910 168.403183 78.283600 92.145142 76.537674 103.484924 89.862701 102.981346 77.995087 124.730843 59.334579 99.902435 105.813332 85.333336 91.415405 131.923111 81.604111 159.617844 139.075577 65.015877 142.110794 98.507370 28.753624 124.000000 92.145142 96.633179 125.905800 137.867538 48.464123 104.078690 91.283966 125.470352 66.236832 91.415405 88.856544 23.444609 62.426746 121.044807 37.790478 97.749039 95.542511 82.078865 74.560188 89.862701 121.624519 77.377213 104.078690 94.265778 87.268730 31.887493 79.162094 40.463989 45.380985 157.636246 76.079086 119.563087 89.862701 129.040649 75.580956 109.462067 123.158096 117.244690 
conv_29_param_0 199.766510 174.913254 207.247803 199.766510 187.794952 140.364807 179.872757 190.407028 169.554108 179.748444 118.873856 191.528717 191.528717 143.067108 168.020676 164.409607 173.744827 173.397339 173.860962 188.202606 217.653549 150.692932 193.956741 101.918495 196.744324 168.020676 171.228439 199.460129 193.956741 131.229065 175.030960 174.444000 163.479568 175.859360 202.409332 204.317368 115.701065 236.236145 193.379929 187.659454 187.930634 190.686218 171.341232 187.389053 201.001541 130.504761 201.156998 196.595612 160.652252 112.986969 172.821259 133.382568 217.471573 183.943420 150.692932 166.089401 182.267700 222.684937 159.274948 190.546524 108.193008 180.622223 180.999298 131.760895 
conv_30_param_0 371.300507 378.321442 469.064026 602.771729 229.159470 552.514099 393.191223 359.496887 394.084839 136.461700 691.744690 709.191528 647.407593 345.872345 518.894775 424.300171 480.768951 596.550476 427.789459 599.990784 488.443207 532.165710 637.490173 494.949585 613.072510 333.670288 366.849091 378.872528 481.659271 609.124146 304.919098 264.728760 455.509644 484.801483 447.669525 423.954346 547.858887 459.127991 177.418823 351.006744 437.872040 520.452209 379.425232 367.886841 417.824890 430.266327 383.622406 465.704559 431.336639 379.425232 585.472168 536.557007 569.137878 640.630554 366.590546 473.332123 326.959137 318.160248 363.262573 432.053162 540.178589 415.488831 378.596802 437.136139 588.119812 353.631531 467.378265 472.472290 268.140198 409.922760 520.192017 410.246063 483.899536 397.700317 522.019043 406.399994 311.678864 647.407593 317.383759 440.467407 471.188416 442.716583 408.955963 344.498016 314.315399 453.128906 461.982239 422.233765 508.496582 530.808167 426.037689 557.846619 841.734619 510.743256 439.722748 512.757019 479.439636 412.523407 571.953796 360.993744 466.121857 447.669525 485.253723 376.677765 556.652771 417.824890 394.383636 544.703674 115.701065 480.325012 437.872040 529.996948 356.052032 440.467407 388.783264 446.516724 576.390015 390.827942 404.818665 811.531982 350.770050 418.834137 586.131836 437.503784 620.014282 493.072998 361.495483 282.252838 
conv_31_param_0 336.258575 299.649780 461.163116 383.905548 309.269928 434.943146 236.450912 327.164795 411.544312 313.936035 367.107971 428.847473 548.436462 470.761993 413.178711 443.471436 698.244324 283.792694 344.498016 372.897491 441.214600 418.497192 398.920258 487.984985 483.000916 424.646545 319.724640 236.881607 482.105652 482.552887 659.723511 417.824890 502.115845 537.111023 360.743408 296.068298 638.272400 349.591400 496.366425 309.822510 452.340881 165.455475 173.860962 355.565277 535.728088 298.275238 376.677765 365.303375 493.540802 440.840668 334.098907 374.238861 414.165619 547.858887 310.562378 222.875748 218.751892 320.908081 341.557465 474.627747 381.372437 327.164795 206.261703 351.006744 375.048309 676.892639 512.000000 408.634735 392.597748 478.117645 478.117645 380.257324 514.786743 274.507660 452.340881 294.226257 485.706818 352.911804 404.189575 272.780273 163.891617 313.746674 414.165619 471.188416 315.076935 378.321442 213.193436 418.160767 384.757385 442.340149 410.894165 565.426086 406.717743 345.413025 329.027191 357.520264 434.217041 534.901794 210.604050 550.759155 409.922760 285.349426 380.535492 520.973450 378.321442 330.910950 326.959137 333.456421 492.606049 349.591400 484.350098 486.615540 301.735504 475.495422 410.246063 172.706512 360.493408 393.191223 395.282684 288.674805 434.217041 399.533020 569.137878 338.006500 302.437195 599.299561 446.133789 328.611511 439.722748 367.626862 360.243774 324.916931 349.122162 416.820526 248.657745 350.297638 436.402679 804.627991 475.061188 272.209320 374.508270 430.266327 446.900330 692.665771 401.692657 489.362183 429.555725 537.944153 312.803375 396.487793 373.164978 326.753754 156.684341 589.452698 359.000702 324.714111 364.791016 423.264435 432.412292 356.052032 415.820953 557.846619 490.284637 416.153595 492.140015 401.382721 388.783264 238.620178 360.493408 349.826508 420.867310 402.625397 308.902618 499.704132 361.244446 405.765991 421.208099 344.270020 275.963928 398.004578 349.356628 331.755096 415.157227 323.502502 440.467407 408.634735 459.127991 560.551697 553.690247 298.960907 429.910736 310.933655 295.899872 533.256775 622.984436 341.781860 541.302795 274.362854 489.822968 508.745239 449.215881 344.042328 431.336639 270.792297 334.959442 279.823547 356.052032 323.703796 308.353302 518.894775 548.436462 343.814941 368.669037 339.550903 610.912537 479.881927 435.671692 477.678619 344.726318 532.983582 338.446320 385.613037 342.682465 214.070786 433.132385 514.277832 749.556213 309.638092 432.412292 566.966736 339.772705 336.476074 527.310669 134.834625 630.918152 392.894257 398.309357 520.973450 435.307098 432.053162 284.568939 451.555542 369.717133 374.508270 350.770050 438.980591 424.300171 404.189575 472.043549 442.716583 527.043579 499.224579 313.746674 483.899536 416.153595 298.446350 
conv_32_param_0 449.993073 516.832581 529.457520 474.627747 556.652771 443.093689 416.153595 268.555511 446.900330 438.980591 385.042206 344.726318 405.765991 176.336273 566.349487 435.307098 509.992157 344.270020 193.956741 607.700928 615.976318 470.761993 366.332397 371.831299 375.589905 495.420959 622.984436 503.574066 534.078003 359.745514 508.000000 518.377686 468.641449 544.989014 329.443939 549.305176 348.654144 236.450912 366.074585 233.899277 526.243774 416.820526 349.356628 421.208099 430.266327 504.550934 471.615601 523.859009 415.488831 489.362183 728.560242 455.111115 441.214600 560.853882 485.706818 613.433960 586.462219 486.160736 342.682465 398.309357 375.589905 498.268188 696.841248 454.713287 517.861633 437.872040 561.156433 557.249084 419.171631 459.939880 347.954529 722.990967 395.583282 346.794678 450.382690 621.495789 374.508270 535.176941 434.217041 384.189056 466.121857 521.495728 334.313629 448.055115 610.912537 504.062012 276.697876 475.930481 164.098419 470.761993 466.121857 437.872040 177.782639 536.557007 539.898315 477.678619 556.355103 376.950714 454.316162 441.589142 418.834137 464.042816 231.608185 504.550934 361.244446 237.097534 346.102448 632.452271 468.219635 375.589905 468.641449 250.574188 164.721970 444.228851 329.652710 549.595337 544.989014 544.989014 559.948303 294.559448 216.026581 366.074585 417.489563 537.944153 545.560547 635.931519 611.271423 571.639587 
conv_33_param_0 494.009491 935.597107 535.452393 481.213684 988.958191 690.826050 648.214355 459.939880 1039.864014 495.420959 963.318542 783.421692 609.838196 344.270020 486.160736 975.055298 1232.682495 662.664978 414.165619 896.110229 595.526062 538.501038 646.602844 332.178802 772.371216 517.089478 406.717743 658.887878 245.373581 206.589355 788.169678 735.773682 385.327393 1109.151367 442.340149 366.590546 944.087097 892.267578 1439.977905 556.355103 622.611633 1259.544800 403.249603 811.531982 383.339722 753.355530 1025.008911 336.476074 606.637878 840.374817 687.175720 626.737366 283.947601 375.318909 449.993073 539.059082 1160.495239 416.153595 666.912842 734.734436 700.595276 586.793030 577.349609 661.401123 648.214355 355.808472 1125.347778 353.151398 747.402283 1477.818237 643.802002 293.231110 704.389954 346.794678 1721.065308 334.313629 772.945007 423.264435 641.025269 643.802002 482.105652 653.507507 260.617249 982.421143 734.734436 1186.975464 67.487289 757.745056 1036.755371 855.578918 693.127258 1420.319458 832.307190 555.167542 283.020660 419.171631 591.463318 518.636108 176.216797 1148.326660 951.860962 674.260559 1440.975098 517.861633 459.127991 598.265686 711.130554 814.709473 414.165619 689.452637 699.653015 419.509674 549.015320 818.555481 1006.174072 1161.791138 602.074097 736.815857 523.068909 354.354218 893.033447 690.367615 459.127991 377.771973 318.745087 707.263062 769.514771 643.403809 519.412903 864.106323 1028.555664 1077.559814 1189.690063 392.894257 704.389954 528.113708 750.096619 1024.000000 381.372437 642.609009 297.763031 911.019287 895.339050 825.046814 498.268188 854.875916 999.408264 1278.898560 1074.222046 648.214355 368.930511 1021.988220 582.521851 398.004578 1189.010254 834.309570 1009.101868 384.473022 1179.573730 855.578918 973.231079 538.501038 1099.190674 1145.797363 913.418762 973.231079 594.505127 1084.863403 501.631622 836.994385 378.046509 540.459229 658.887878 923.964478 759.959106 848.600342 726.018127 1032.639160 621.495789 435.307098 711.616943 684.463135 1204.148193 402.003082 716.024780 495.893219 807.751526 540.178589 412.850800 745.260742 1142.651245 508.248169 532.983582 504.550934 835.649780 528.113708 666.485596 1389.030762 705.823608 697.776001 860.532654 1098.030640 496.366425 328.404053 512.252075 776.405945 870.614197 306.716980 617.072388 749.556213 427.437958 912.617554 613.795898 972.321472 415.157227 442.716583 1092.266724 1366.229858 655.566467 682.218994 810.267883 658.054382 587.124146 595.867126 524.916260 936.439270 582.848206 411.218964 493.540802 609.838196 314.886200 487.071167 867.709778 309.453888 566.657959 566.657959 605.931274 692.665771 638.272400 456.709381 666.485596 1133.315918 290.285706 389.949036 793.580444 453.128906 962.427368 326.139191 1006.174072 318.549896 786.382446 435.307098 564.505676 837.668274 515.041565 524.122925 
conv_34_param_0 119.419655 109.375946 118.765297 135.325699 100.968941 123.151512 101.758995 85.670616 68.954399 130.898849 135.325699 188.475357 118.225456 187.389053 117.477867 117.266006 130.308624 134.974579 95.976387 136.033478 128.189255 117.903900 119.310089 132.499237 122.686790 114.378189 123.502373 124.926033 99.273285 91.841805 85.727097 111.629181 111.917381 98.670715 111.533447 119.200737 131.894516 131.229065 121.653885 143.303589 127.000000 125.166504 119.749542 71.889442 131.961441 127.937042 135.114807 112.498268 103.212700 153.994080 133.041428 101.918495 126.137733 112.595673 130.048004 80.078819 137.544159 115.804092 122.455742 100.268311 113.282227 114.077194 150.084244 127.748528 114.984970 105.730080 108.826775 93.762077 77.640594 108.373337 85.953735 131.494446 128.633041 126.629013 115.188660 106.161636 109.009224 142.674713 132.431778 107.211868 111.342468 100.968941 87.163536 104.288696 136.676819 136.033478 144.497772 108.013290 107.388931 103.294678 107.834160 155.559814 114.680779 106.596718 118.765297 116.010704 99.425079 137.036880 88.168137 125.166504 162.053589 119.639374 114.984970 114.378189 114.883392 129.594421 99.501144 37.413120 86.640907 110.585037 128.063019 116.634979 130.964752 133.519501 105.216827 91.776993 89.441544 91.133850 101.047394 98.075417 114.277679 83.364105 110.210167 125.166504 106.509422 132.499237 114.378189 130.439316 172.135010 166.728210 123.855240 166.408188 39.648781 114.579735 225.191345 150.867752 65.713997 228.154388 148.541412 121.996246 198.698242 208.410263 140.592438 179.376556 46.050991 51.853268 190.128662 123.035004 221.170074 192.094528 126.876099 186.582489 222.494446 204.800003 150.518524 226.170441 37.348652 121.653885 188.338882 214.247116 166.408188 97.487259 129.208145 189.160721 169.443649 200.073853 146.121353 101.758995 219.490295 208.243393 122.225563 183.813431 66.114899 174.327072 111.057213 154.726944 66.794044 246.770401 182.267700 145.548965 214.955368 183.424545 46.712643 227.158081 227.954422 226.170441 191.387787 140.440598 244.681091 50.959248 135.466660 184.334518 197.641342 224.414154 207.082809 142.440308 132.431778 87.574409 151.306580 206.753571 225.973938 196.744324 264.056854 140.897079 190.546524 67.487289 184.990036 74.143669 95.834930 165.983414 176.695648 92.758919 122.225563 182.523514 177.056503 155.466827 173.166443 177.056503 131.627533 117.054909 198.243896 177.297882 132.297043 214.955368 131.361618 65.913834 210.774719 169.554108 104.877419 209.417068 80.425476 162.053589 250.333008 184.073608 178.514755 201.468628 198.546570 210.093704 140.213470 214.955368 136.461700 239.058823 175.859360 149.738632 233.060928 152.817856 172.249008 103.789307 161.450027 174.210312 188.475357 180.246704 292.242706 116.949638 169.003250 178.270050 
conv_35_param_0 314.886200 422.920319 281.032959 316.611084 267.313477 215.489639 254.497070 271.074524 258.416290 230.173447 416.153595 409.922760 297.592682 289.800568 255.497055 280.426941 321.304504 1328.715210 256.252228 412.196503 266.628387 302.613159 210.093704 260.486725 220.233704 395.282684 417.154785 205.284927 256.000000 303.318939 212.844513 320.315277 315.842133 273.497375 265.133545 274.362854 274.218231 206.261703 313.557556 261.403015 336.911926 254.000000 382.775574 370.507111 347.026031 354.354218 192.094528 220.047379 268.694214 118.225456 279.072968 324.714111 221.170074 409.600006 240.384476 257.903809 288.995544 371.035675 365.303375 351.243744 292.242706 293.065918 225.777771 319.724640 247.946609 162.053589 1595.681030 190.826126 268.555511 193.812225 223.834763 253.504868 193.523804 210.433655 252.765793 227.555557 253.011673 187.659454 247.710480 183.683609 138.275391 300.168488 595.526062 297.763031 242.853409 203.199997 282.713043 245.837433 357.520264 217.835846 214.955368 202.724869 333.242798 319.136200 211.288376 213.543518 248.183212 264.728760 412.850800 258.673309 268.002075 263.655334 351.956696 258.287994 358.258942 248.183212 1698.586182 314.315399 312.803375 259.706451 206.589355 119.419655 212.496735 410.894165 364.280121 662.243164 269.669250 429.555725 378.872528 203.517990 198.698242 208.243393 303.318939 272.637329 234.743683 166.835144 277.731995 209.080383 697.308289 304.919098 438.980591 414.165619 321.901001 318.160248 436.036896 340.662750 389.074036 386.185608 260.226105 529.727112 470.336334 293.727844 365.560089 399.840118 346.102448 359.248627 545.274658 387.335815 457.110718 340.439789 546.994751 464.042816 inf 304.205841 240.606842 340.217133 284.724670 434.217041 387.913483 526.510132 378.872528 255.748276 379.148682 420.527069 282.866760 379.148682 405.133942 416.153595 275.525421 288.835083 238.839310 236.450912 278.326385 280.729614 317.771545 344.954895 264.056854 242.626862 207.578613 337.787018 322.299866 295.395813 320.512634 345.642517 126.505836 236.021774 218.201340 389.074036 268.972076 353.872101 483.899536 283.328979 178.760132 242.400742 877.220886 224.996536 606.991821 311.865723 532.710693 1559.796143 398.004578 256.252228 825.701599 881.681335 320.710236 629.010864 274.942932 234.532013 197.942154 249.852066 1668.619141 209.248596 1598.132080 957.996338 175.385025 227.954422 241.724915 351.956696 1795.313232 220.982162 206.918060 209.924133 349.356628 854.174072 296.574677 759.959106 281.946869 267.726196 219.675674 203.836990 218.936020 384.473022 802.146484 215.847305 278.177551 869.886292 270.510651 148.541412 1394.616577 110.679146 1814.095947 994.630981 227.954422 706.302795 672.517151 267.588470 205.772156 233.689133 250.815811 301.560577 218.751892 1357.317627 1869.513062 1026.019775 549.305176 229.361557 
convdw_174_param_0 190.546524 299.132843 99.730064 190.407028 188.338882 177.177109 174.327072 123.151512 165.983414 205.935074 712.591797 171.793930 173.397339 252.520386 153.268127 224.414154 272.923401 159.862320 153.087692 169.223160 156.590012 157.729538 155.466827 196.003021 137.835724 181.885315 699.182800 175.266846 191.387787 209.585815 176.936050 156.026398 211.116882 173.513016 592.136597 182.908585 145.305023 142.362335 249.134094 158.982880 147.029953 193.092804 54.965343 285.506042 159.372543 163.171890 162.154617 303.673096 212.150085 127.937042 130.570282 183.813431 164.721970 169.333328 174.678314 196.447128 305.097961 157.825241 159.764130 162.865372 186.582489 183.683609 203.996857 151.747955 320.512634 373.969818 129.723694 346.563629 269.669250 315.076935 243.080368 66.384888 217.108521 339.550903 188.612045 126.137733 466.539917 120.638222 439.351349 304.919098 356.295898 364.535400 45.823818 342.231567 74.143669 57.088673 366.849091 401.073242 609.838196 236.881607 54.596138 861.245056 382.775574 618.172302 324.916931 146.946899 557.846619 118.765297 650.646667 332.391052 416.486786 338.887299 1079.236572 591.463318 104.877419 411.218964 483.449829 87.633423 710.159729 367.367218 99.046455 257.776001 75.302834 107.744820 392.006042 158.209244 110.303650 567.585388 347.489655 356.052032 329.235443 515.041565 319.724640 81.432686 54.872574 114.177345 242.626862 276.697876 
conv_36_param_0 434.217041 426.736664 243.080368 319.724640 263.789032 357.274719 423.954346 413.836121 622.239258 428.847473 284.568939 387.913483 319.528259 432.053162 406.717743 517.089478 129.143997 189.851089 382.775574 277.435730 396.487793 271.498962 348.187408 203.358871 404.503876 455.111115 381.093048 443.471436 83.956100 332.603577 367.626862 479.439636 481.659271 494.949585 381.652252 416.153595 409.277740 409.600006 448.055115 190.966232 324.714111 439.351349 418.160767 273.929443 315.267883 369.454559 216.746674 363.770630 595.185364 430.979279 300.341797 247.239548 304.205841 317.965759 88.830605 424.646545 441.964325 198.546570 457.110718 520.712708 420.527069 196.595612 389.074036 325.119995 453.128906 356.052032 507.009735 465.288025 340.439789 176.455902 289.478027 409.277740 427.437958 384.473022 408.313965 425.340973 323.301422 455.509644 378.321442 267.726196 368.930511 214.600662 485.706818 311.119629 381.093048 339.108215 419.848267 407.673981 291.097931 417.489563 284.568939 400.764252 522.806030 422.920319 289.317017 416.486786 372.630371 309.638092 307.805908 278.923309 311.119629 478.117645 142.753021 464.872192 324.916931 413.507141 505.531586 455.111115 410.569855 374.238861 399.840118 368.407928 416.820526 383.905548 329.861755 439.351349 295.899872 407.673981 461.982239 334.098907 293.396515 563.283142 445.751495 450.772949 407.354736 412.850800 486.615540 274.942932 
conv_37_param_0 495.420959 583.174866 483.449829 494.009491 460.346893 534.626953 621.124756 623.357727 529.996948 543.565308 633.993896 469.064026 530.267090 728.560242 626.360046 572.583374 627.872070 380.814056 511.496552 583.501953 646.201233 609.480957 588.119812 622.611633 341.557465 549.595337 715.040527 439.351349 466.539917 473.763214 555.760681 492.140015 365.560089 271.640717 618.539856 597.921814 547.282471 405.765991 716.517883 580.247620 404.503876 578.956055 577.029419 684.013123 761.070984 508.745239 487.984985 548.725708 498.745911 549.885864 554.575684 744.194580 640.630554 479.881927 385.327393 479.439636 566.966736 495.893219 565.426086 365.047028 595.867126 464.042816 401.692657 600.336975 576.709534 235.380997 468.641449 500.666016 504.550934 692.204895 606.284363 661.821899 419.848267 560.551697 612.350769 464.872192 646.201233 462.804260 562.369751 501.148376 444.608551 448.828308 421.208099 609.480957 698.713257 633.993896 597.921814 589.786865 699.653015 584.813965 615.976318 527.578064 734.734436 514.532166 774.095215 509.243256 614.884155 517.861633 548.147522 439.722748 557.846619 536.557007 517.346619 601.030640 415.157227 421.891327 442.340149 625.983154 524.122925 519.672302 546.420166 661.401123 487.984985 690.826050 367.626862 436.036896 506.023346 533.804016 508.248169 624.480164 360.993744 533.530273 582.195862 513.516296 445.751495 704.867188 638.664185 639.056519 622.984436 571.639587 491.674866 599.990784 463.216370 746.865784 594.165649 629.772400 502.600952 462.392883 494.479095 615.611816 587.124146 660.561279 692.665771 652.278381 669.057251 683.114929 570.385986 544.133911 595.185364 565.426086 470.761993 448.441376 541.866638 350.533691 647.407593 633.222168 482.552887 569.449341 538.222473 455.111115 499.224579 448.828308 504.550934 540.459229 580.571411 520.712708 598.265686 438.980591 615.976318 550.467712 666.058899 441.214600 505.531586 483.449829 533.256775 580.895569 673.387695 511.496552 504.550934 601.030640 620.384033 605.578552 383.339722 417.154785 583.501953 581.544983 585.142883 345.413025 493.072998 574.163330 645.800110 398.309357 387.913483 513.769897 603.121155 578.634033 476.366302 571.325623 525.711975 461.163116 485.253723 640.236328 461.572327 537.111023 608.767700 527.310669 564.812134 748.477722 507.009735 462.392883 430.266327 485.706818 575.433655 577.349609 741.014221 551.050842 635.155090 404.818665 432.772034 852.075378 482.552887 384.757385 425.340973 594.505127 504.550934 530.808167 629.391418 744.194580 440.840668 618.907776 575.115540 511.245209 517.861633 502.115845 283.792694 663.087341 416.153595 587.124146 540.459229 620.014282 284.724670 654.741333 581.220093 453.919708 569.761230 531.621887 605.226318 474.627747 694.515381 653.097290 381.932465 233.060928 609.838196 392.597748 634.767517 543.281433 
conv_38_param_0 172.477448 204.477982 193.523804 137.544159 217.471573 224.414154 232.644012 200.536621 168.346924 208.577393 207.578613 190.267746 198.092911 220.233704 216.206146 302.085938 172.135010 245.142319 294.893433 221.358292 332.178802 220.233704 174.678314 250.092300 253.011673 197.641342 162.357056 159.666046 57.038597 225.581955 223.450165 219.861374 203.041367 160.454041 246.303024 203.041367 192.521103 196.447128 221.170074 194.828461 218.936020 367.886841 207.082809 132.702042 189.989777 207.247803 189.574341 224.607941 91.841805 202.409332 206.261703 212.496735 206.261703 220.233704 52.736416 237.965240 206.098251 191.528717 244.681091 203.358871 205.447083 133.041428 259.966003 151.218597 167.156815 133.177673 190.407028 138.570053 203.517990 170.219894 199.002289 221.170074 190.546524 239.940964 133.588089 215.133163 235.168167 187.524155 215.847305 186.448746 159.666046 205.772156 220.794571 202.724869 193.092804 220.982162 171.567276 181.377960 178.514755 188.202606 218.384552 493.540802 150.692932 242.626862 244.681091 240.606842 212.496735 180.873428 289.639191 153.902954 239.719818 182.140060 156.590012 204.638870 219.861374 241.500458 255.874084 261.140564 209.417068 233.479355 170.331375 173.281815 221.735718 265.133545 301.735504 209.080383 168.674454 224.607941 223.834763 165.245239 228.957748 229.766785 214.070786 212.496735 210.774719 196.150833 245.605286 282.406067 
conv_39_param_0 379.702179 1150.231079 578.634033 679.101807 455.111115 934.756531 507.009735 850.681946 396.487793 800.295410 953.605896 562.065918 445.751495 875.007568 375.861267 730.094055 1083.733276 528.919189 655.979797 550.176636 497.315491 618.907776 480.768951 1100.935425 685.816772 651.869690 498.268188 896.110229 747.402283 284.102661 859.111450 817.269470 739.960144 537.111023 1822.038574 534.901794 569.449341 848.600342 1003.263245 817.911926 559.948303 483.000916 560.249878 442.716583 891.502991 433.132385 915.830994 631.684265 672.517151 308.353302 577.029419 778.148071 635.155090 845.840637 492.140015 469.487366 958.879272 1015.008789 392.894257 658.887878 523.859009 641.816162 781.069092 633.993896 666.912842 771.798218 525.446472 1166.349731 735.253723 608.411682 536.004150 495.420959 336.258575 314.505432 725.511841 334.528625 632.836975 467.798553 602.422668 681.771973 938.974731 663.510193 739.960144 444.228851 827.672241 911.817688 864.824585 717.506226 497.315491 745.794983 595.185364 709.675293 902.327820 421.891327 820.492126 1108.560425 767.244812 503.574066 892.267578 308.170624 632.836975 962.427368 722.488892 1159.848389 402.625397 663.510193 866.986694 611.630798 1010.081543 875.007568 790.565369 402.937256 511.748169 732.664795 372.630371 950.122375 526.776733 346.563629 359.745514 1402.134766 625.230774 1213.983643 869.886292 548.147522 618.172302 1512.186035 392.301666 620.014282 721.486816 908.632324 611.271423 771.798218 1076.444946 1159.202271 408.313965 1016.000000 392.894257 546.420166 402.003082 1074.776855 613.433960 845.840637 778.148071 889.977783 593.149353 709.191528 343.814941 613.795898 692.665771 463.216370 848.600342 650.646667 818.555481 298.789215 543.849426 844.467529 478.117645 714.549438 544.133911 427.087036 263.655334 402.937256 731.634338 611.271423 684.463135 938.128052 954.480713 901.545898 608.411682 1701.363892 694.052063 606.284363 781.069092 854.875916 532.165710 471.188416 451.947876 466.958710 594.845032 663.933655 494.479095 695.909058 543.281433 732.664795 491.210571 578.634033 474.195068 451.947876 915.830994 735.773682 695.443848 488.902252 644.999390 337.130280 559.045654 592.811401 796.009155 1083.169189 443.093689 536.557007 980.569275 437.136139 794.792969 683.563721 411.218964 848.600342 641.816162 1383.489380 582.195862 766.679443 794.792969 923.144653 822.437927 864.824585 770.654785 540.740112 587.455688 755.543945 644.599731 857.694946 797.229126 757.745056 851.378052 1200.673950 642.609009 1342.430908 646.201233 735.253723 789.965088 678.216431 556.950745 667.340576 783.421692 762.744873 504.550934 802.765442 606.991821 683.114929 783.421692 487.071167 761.070984 1327.867310 471.615601 727.032837 319.136200 782.243591 660.980957 1039.864014 343.587860 742.601013 877.961182 697.776001 346.794678 661.821899 702.013489 319.332092 
conv_40_param_0 364.791016 377.224091 232.021408 407.993713 206.098251 225.191345 343.587860 514.277832 224.996536 213.894730 301.211334 447.669525 442.716583 391.121796 286.923340 202.882996 548.436462 536.833862 379.148682 357.274719 376.405212 242.853409 372.897491 420.867310 440.094757 475.495422 375.589905 305.995300 211.977173 339.772705 228.555359 366.332397 438.980591 369.192322 490.284637 367.107971 429.201324 379.979553 178.392319 403.875763 348.420624 488.443207 326.753754 350.061920 316.996948 392.597748 370.771210 344.726318 222.304276 261.271729 264.998474 165.666245 173.744827 245.605286 247.946609 407.993713 449.604156 418.834137 478.998169 382.775574 421.549438 318.354950 199.307281 457.512756 331.121582 284.880615 282.866760 306.175385 592.136597 297.252563 411.218964 195.267273 147.614075 358.505859 491.210571 377.224091 262.988892 254.746323 440.840668 369.717133 163.582397 240.606842 497.315491 450.382690 322.100311 899.208313 164.826355 214.423737 514.023743 208.243393 334.528625 265.133545 453.128906 440.840668 602.771729 324.107178 183.553986 721.987488 390.534546 243.307770 571.012085 553.690247 293.065918 487.984985 223.450165 213.193436 394.682861 558.445496 314.315399 209.754837 303.850464 367.626862 295.228149 285.662811 224.802078 264.325195 168.565140 314.886200 323.502502 289.962097 443.093689 263.521790 302.965637 771.798218 208.912445 326.548645 385.327393 1047.190796 
conv_41_param_0 56.283688 56.333630 46.274052 72.849113 57.403255 77.377213 43.484932 86.202309 86.260872 44.397202 49.872742 94.126022 51.241325 48.206532 104.078690 71.981857 74.472725 49.291927 52.556290 58.139194 167.957672 74.560188 61.341064 72.186470 56.635147 76.815491 52.039345 57.768879 66.479584 66.375328 139.610779 62.212643 
conv_42_param_0 40.907215 39.335812 37.835518 33.170322 54.872948 110.413910 79.758797 55.887325 51.911694 51.365696 42.552280 35.929825 48.169956 65.552917 46.993340 74.603996 47.915470 26.387365 87.029472 90.697144 53.940525 51.076427 53.441078 35.707535 37.170959 64.259109 74.385475 50.267616 96.048409 72.309792 51.324173 47.987907 55.063313 66.794319 98.814011 60.695984 78.622910 65.149307 63.424576 78.818123 57.351398 48.912174 94.970833 55.740124 58.192486 49.794510 45.026951 30.969755 39.979851 39.904461 31.383095 62.921703 55.642418 66.030159 26.169827 63.679039 68.859001 76.583839 91.087517 68.156738 57.093525 70.738716 37.948597 73.737518 
conv_43_param_0 266.355347 503.574066 348.420624 309.638092 253.011673 286.607178 755.543945 213.018845 355.079865 278.624542 161.851898 356.540100 363.262573 389.949036 158.595123 385.327393 301.560577 571.012085 447.669525 307.442078 431.336639 241.949768 398.004578 327.164795 441.964325 255.497055 478.117645 343.134552 318.940521 283.174744 524.122925 577.349609 299.822479 749.016541 279.072968 201.937881 452.340881 339.994781 176.336273 428.847473 305.635712 375.861267 229.766785 267.313477 326.959137 265.946838 513.769897 590.121399 379.148682 365.303375 279.673126 301.910614 397.093140 307.260498 286.134216 321.901001 215.133163 243.080368 442.340149 373.701141 475.930481 652.687561 309.086151 128.696686 336.693848 323.301422 186.448746 279.522827 368.407928 394.982544 309.453888 310.933655 367.626862 230.173447 449.215881 229.766785 307.260498 234.955734 267.588470 366.849091 422.233765 352.672546 375.861267 509.243256 232.021408 307.260498 360.243774 839.696533 229.361557 224.996536 424.993469 800.911499 209.924133 449.993073 304.028046 464.457153 227.158081 500.666016 319.528259 539.618286 230.173447 464.457153 81.945808 290.610046 338.226257 328.196838 591.463318 358.753113 321.304504 301.560577 214.600662 303.318939 413.507141 279.974152 296.068298 427.087036 333.456421 662.243164 507.009735 273.497375 458.723114 384.189056 300.689026 421.549438 413.507141 384.757385 575.433655 413.178711 
conv_44_param_0 112.790977 146.532959 436.402679 341.333344 483.899536 347.489655 413.836121 352.911804 528.113708 193.523804 440.094757 338.006500 455.908844 632.452271 126.015503 216.386017 332.816376 427.087036 532.165710 417.154785 529.996948 490.747162 310.192017 211.977173 550.176636 378.872528 314.125610 132.973419 559.346252 194.974518 138.643921 326.139191 1051.423950 128.189255 241.500458 682.218994 399.533020 371.565704 441.964325 488.902252 405.449738 240.384476 321.701904 791.166565 413.507141 204.961380 200.382126 364.280121 608.411682 354.837646 1055.156128 323.905365 262.193542 320.512634 199.613205 378.596802 313.368683 258.159790 171.228439 332.391052 271.782654 190.128662 211.288376 493.540802 
conv_45_param_0 39.854362 32.458076 64.816742 41.333332 50.507557 44.058292 33.066666 45.316204 38.477577 23.885628 63.967758 34.448181 70.075058 42.381844 32.243778 64.032272 
conv_46_param_0 32.912392 23.187729 38.878139 82.185112 25.558777 49.561279 25.517685 43.784828 47.807228 32.793388 58.894249 50.871796 38.735813 31.015144 55.111111 45.576454 37.566864 49.872742 23.341177 57.093525 24.684292 21.521357 58.730804 29.096243 101.095543 62.334805 32.878300 98.968040 44.242508 53.261745 37.105785 61.400387 
conv_47_param_0 220.233704 276.845123 193.523804 238.401474 132.364380 164.409607 143.620102 268.694214 236.450912 162.255768 431.336639 296.574677 1715.389893 163.582397 89.318680 138.496277 123.973305 111.342468 148.202850 201.468628 144.017715 96.403259 188.612045 178.392319 297.422516 287.876038 149.480453 264.728760 142.362335 137.471466 186.984909 298.104309 115.598221 174.795700 146.781036 132.364380 420.187408 105.472832 220.982162 117.160362 233.479355 277.880341 169.775452 217.108521 122.225563 254.621628 170.219894 133.245895 316.226135 174.561081 290.123810 242.626862 146.863922 169.554108 168.129288 198.850159 240.384476 206.425400 302.085938 169.775452 117.690498 299.995392 189.436264 305.456268 
conv_48_param_0 187.389053 187.119431 296.574677 314.315399 280.426941 354.837646 350.533691 735.773682 241.949768 323.100616 313.368683 356.540100 590.791626 330.280640 393.786530 399.226410 383.905548 779.898071 239.719818 275.963928 357.520264 269.809143 328.404053 789.365723 330.071075 266.355347 320.908081 258.287994 352.911804 264.863556 378.321442 308.353302 262.061462 420.527069 508.000000 259.576843 516.575989 333.029449 310.007141 578.956055 812.165466 294.226257 471.615601 280.729614 235.168167 410.569855 556.057739 318.745087 669.918884 348.654144 376.133057 311.492218 483.000916 372.897491 403.562439 288.995544 595.526062 232.852280 236.666061 380.814056 340.217133 460.754639 237.747711 367.367218 
conv_49_param_0 185.385605 178.883087 226.761993 197.042419 197.042419 143.540833 225.777771 162.255768 201.001541 175.621872 155.096008 144.658508 139.761414 172.591904 143.938019 172.477448 166.942230 123.151512 169.775452 200.382126 233.269958 205.609482 164.826355 144.900284 223.066895 159.960632 195.120773 167.264313 265.404083 280.881195 181.885315 148.034149 147.279724 128.760391 172.363159 166.514725 125.046150 126.752434 209.417068 209.585815 180.371704 172.936172 226.564453 182.780045 190.128662 154.726944 161.050156 142.831406 172.591904 175.859360 143.699448 118.873856 86.814423 141.203033 118.548767 187.254135 190.966232 202.409332 162.559998 121.426704 226.367279 229.361557 171.228439 130.504761 222.875748 237.313873 551.927856 562.673889 255.497055 259.576843 215.311264 284.413330 382.494110 170.108566 333.456421 201.312698 426.736664 276.403839 217.653549 271.074524 349.356628 281.032959 304.562073 170.331375 214.955368 331.121582 312.615387 263.521790 459.939880 447.669525 300.341797 409.600006 391.710846 258.159790 182.395508 275.088318 376.405212 249.372955 339.994781 240.162506 246.070007 1462.240356 212.844513 208.912445 293.727844 225.386475 292.078613 346.563629 228.957748 240.162506 374.508270 275.963928 198.092911 225.973938 217.835846 256.631470 300.862915 312.240082 207.082809 276.697876 350.297638 337.567810 419.509674 227.954422 164.305756 387.047607 169.003250 181.631287 
conv_50_param_0 31.759880 51.658260 40.593349 39.829361 34.883518 30.435284 20.206238 71.334831 41.441254 42.212765 26.041018 34.730854 37.925926 29.947170 50.347343 36.783314 40.233208 52.730896 23.619047 37.214539 36.011345 27.483982 24.761311 34.041824 37.745541 39.141800 41.906269 37.433964 16.751451 39.979851 43.544582 47.449924 
conv_51_param_0 87.933517 40.386768 18.233200 26.993196 20.065739 32.675243 41.906269 76.908539 54.078365 31.507692 28.572456 60.407230 38.361328 48.316589 35.428570 28.649820 21.983379 17.684679 24.418461 34.262276 40.131477 57.716362 35.767887 29.947170 38.199760 54.309666 24.343557 34.078369 28.042402 33.135700 34.979614 38.384521 51.954174 63.710987 34.262276 40.775852 35.727631 30.729914 35.727631 38.854343 53.217098 35.349667 28.042402 62.642330 26.541805 25.193651 38.268837 40.723541 25.682848 25.253778 42.212765 37.019241 29.016453 31.919558 48.575363 33.414738 37.589108 45.740635 25.456295 36.299599 34.410839 39.458050 43.277435 18.275187 
conv_52_param_0 213.894730 338.226257 167.587631 282.866760 277.731995 304.562073 214.955368 397.396484 190.686218 146.368042 118.225456 370.243408 200.073853 223.450165 334.959442 263.255066 169.997391 77.733414 189.436264 293.396515 287.240204 205.123032 223.834763 179.129471 205.935074 166.835144 128.505936 175.148819 330.700562 200.846329 157.062805 96.546402 231.402130 104.540192 211.977173 211.460159 453.523987 339.994781 149.394608 408.634735 269.250519 225.191345 142.206665 171.228439 274.218231 218.384552 322.499695 175.030960 458.723114 326.139191 305.456268 291.097931 453.128906 222.114426 372.363647 319.332092 420.527069 344.498016 236.021774 209.248596 112.207077 253.504868 213.193436 226.564453 345.413025 210.433655 176.216797 611.630798 242.626862 198.698242 260.617249 294.559448 208.744781 213.368332 220.982162 455.111115 129.401001 155.839432 454.316162 411.218964 209.585815 271.074524 226.170441 159.764130 248.657745 221.358292 336.911926 192.806519 617.805237 225.777771 431.336639 266.628387 954.480713 184.334518 653.097290 519.153687 235.380997 246.770401 506.023346 455.908844 432.053162 135.678665 175.503372 174.093704 201.312698 181.758209 341.557465 288.514709 353.391296 257.648346 382.213074 282.099792 217.835846 273.785278 105.902283 322.699738 349.591400 169.223160 316.226135 208.410263 158.691879 292.736084 126.629013 287.557770 322.100311 260.486725 195.267273 198.243896 
conv_53_param_0 389.365265 586.462219 764.426147 452.734558 933.079834 615.247803 868.434082 1159.848389 544.989014 357.520264 358.505859 528.113708 434.943146 388.202972 269.389954 600.683594 596.892700 342.682465 377.771973 911.019287 785.195496 473.763214 709.675293 419.509674 415.157227 923.964478 975.055298 479.439636 585.472168 256.504944 210.263535 560.249878 220.607300 448.828308 290.935120 749.016541 579.601135 1124.131836 639.842529 345.413025 521.757263 485.253723 611.271423 351.481079 571.953796 754.995667 266.219025 570.073425 1121.707764 804.006165 723.493713 306.355713 274.218231 739.434265 521.757263 401.382721 273.210083 392.301666 522.806030 416.486786 305.635712 930.576050 478.998169 681.325500 367.886841 623.357727 585.472168 307.442078 760.514648 1051.955566 290.935120 283.947601 477.240356 459.127991 617.072388 291.914703 517.861633 602.074097 464.457153 492.140015 637.490173 523.859009 432.053162 331.332489 554.575684 568.826660 985.212097 361.244446 556.057739 373.701141 539.898315 202.882996 487.071167 786.382446 557.249084 597.921814 461.982239 629.010864 401.073242 928.085632 302.613159 537.388428 413.507141 339.108215 746.865784 662.243164 620.014282 421.891327 421.549438 380.814056 775.826965 633.993896 472.043549 590.121399 836.321533 414.826141 412.196503 316.996948 487.071167 339.994781 856.283142 351.956696 510.743256 538.779907 400.764252 342.456879 866.986694 534.901794 
conv_54_param_0 265.133545 213.543518 162.357056 280.275848 210.093704 163.685333 230.991119 198.850159 250.815811 224.802078 302.789276 206.918060 254.000000 183.037292 198.698242 254.871140 235.594208 302.613159 241.052826 176.575699 171.341232 255.622604 158.305542 215.847305 184.727280 164.826355 201.937881 205.447083 225.973938 192.521103 144.017715 227.954422 260.747864 223.450165 173.744827 238.839310 204.317368 301.910614 176.575699 241.500458 181.377960 239.499084 218.751892 200.536621 205.935074 178.147949 144.658508 133.109512 218.384552 215.133163 218.751892 204.156982 210.945663 167.587631 270.370056 182.780045 240.606842 212.844513 204.156982 208.243393 175.740540 213.368332 173.977264 183.813431 162.255768 181.758209 168.346924 201.781219 189.851089 158.305542 154.085312 213.368332 251.543518 227.754822 241.276443 204.156982 183.295273 195.855423 190.267746 215.668320 257.903809 245.605286 209.417068 148.881516 278.028870 184.727280 206.425400 215.133163 226.959854 204.961380 208.577393 227.158081 236.450912 252.275467 192.949554 245.142319 201.781219 306.355713 179.500351 201.001541 224.414154 235.807800 394.084839 220.420334 183.037292 436.036896 222.684937 198.395111 202.094788 201.781219 243.992493 212.844513 160.256317 242.400742 290.447784 189.023254 230.786163 200.227875 141.126419 179.006195 255.874084 149.480453 242.400742 210.263535 207.578613 181.885315 199.613205 237.097534 308.353302 243.992493 388.202972 456.709381 244.451126 249.134094 138.717865 150.955307 228.957748 125.287094 282.406067 241.052826 280.578217 155.746109 418.160767 186.181824 204.156982 342.682465 219.490295 134.070099 172.249008 249.372955 70.793686 230.377319 268.140198 178.760132 201.781219 229.969940 204.638870 279.522827 232.021408 212.150085 193.379929 259.706451 162.154617 355.079865 179.624313 191.669861 294.893433 359.000702 203.996857 200.846329 173.977264 168.893509 195.413971 114.378189 269.949158 278.923309 165.560791 173.397339 218.751892 295.731659 302.613159 147.865829 148.202850 216.026581 208.243393 185.650253 255.246323 151.571091 241.052826 120.414818 214.247116 368.147217 231.814621 310.933655 307.623901 199.002289 133.109512 199.307281 187.930634 216.927444 221.546844 182.780045 284.102661 378.596802 215.133163 283.483368 193.236252 272.209320 273.641235 269.250519 211.460159 332.391052 360.743408 231.608185 278.624542 209.754837 273.066681 240.829636 224.220688 148.966782 232.436096 163.274323 224.607941 247.946609 243.535583 287.240204 183.037292 225.581955 297.763031 171.003281 192.236511 228.154388 275.525421 171.454193 156.968018 193.956741 190.267746 163.582397 240.829636 179.748444 224.607941 381.652252 150.518524 220.794571 181.631287 267.450897 298.789215 261.271729 251.300476 244.451126 221.546844 187.659454 236.881607 328.404053 190.966232 209.080383 
conv_55_param_0 865.544067 473.332123 499.704132 882.429199 444.988892 942.376831 547.570557 627.115112 738.909119 435.307098 392.006042 709.191528 966.899658 562.065918 508.248169 1379.819580 1048.774170 358.258942 380.814056 375.048309 315.267883 796.618713 371.565704 821.788330 1056.227417 702.487488 883.928650 642.609009 555.463989 334.959442 409.922760 503.574066 1013.032104 534.352356 1125.347778 496.366425 610.554016 776.405945 1140.146851 455.908844 259.836151 517.861633 420.527069 516.063477 527.043579 650.239990 758.850464 1376.169312 581.220093 758.850464 928.085632 633.993896 824.393005 609.124146 409.600006 445.751495 888.457703 796.009155 893.033447 499.704132 459.939880 449.604156 864.824585 620.014282 
conv_56_param_0 27.943663 25.435898 23.358353 39.287128 28.884439 14.324910 29.284132 19.403423 28.042402 36.361969 31.903517 42.752861 27.968283 15.145039 29.284132 22.307800 19.042591 31.075869 28.727602 28.292336 31.274878 26.148270 29.611940 21.233444 39.360199 21.148567 14.792171 24.012102 13.659208 29.122936 29.975449 24.437260 28.067198 15.507572 24.250572 22.044445 21.036448 19.054022 29.365402 31.075869 25.014973 31.305719 24.343557 12.893582 38.477577 18.883997 27.603477 17.224091 21.892414 21.817183 32.810337 34.262276 21.772291 29.639589 21.376431 39.754539 54.683891 33.049454 18.683931 14.324910 29.365402 32.458076 25.829130 41.092556 
conv_57_param_0 65.519089 46.579605 56.233837 68.598595 117.244690 101.743591 43.544582 35.231964 52.426094 66.759201 52.599834 125.656609 50.108917 52.469421 45.740635 132.612015 63.679039 66.864662 70.896706 70.778152 64.259109 61.638836 54.078365 72.682312 66.549263 70.346817 54.263248 58.299358 68.083649 116.491745 72.309792 70.152489 78.671623 42.466888 58.785187 59.894341 54.496136 43.425446 105.025642 44.931351 38.949692 77.283020 110.799301 32.032291 47.592205 42.984428 68.266670 29.947170 62.549755 55.303135 60.754066 62.580582 50.267616 38.384521 82.666664 45.939220 65.688568 67.829063 79.959702 35.428570 78.139076 106.523491 69.347900 76.445518 
conv_58_param_0 113.371429 92.615608 81.551704 91.679420 35.134476 114.187050 40.723541 212.157059 149.824188 114.910408 208.499176 33.573769 72.557716 49.794510 76.170364 71.095184 133.448242 66.444794 72.974716 136.753906 86.027100 68.598595 124.853493 84.877007 62.243137 163.628860 108.992271 103.908348 87.630089 78.916100 183.358841 100.059891 234.057144 80.517441 127.549973 67.112053 100.535233 101.418533 91.878441 44.150208 85.794594 92.683212 97.448967 53.849026 69.385796 117.679329 36.976120 55.351353 116.598717 77.095322 119.002815 122.092308 124.242661 67.183067 52.599834 123.637779 124.000000 298.591431 52.774731 108.898796 94.546539 60.464764 56.383659 97.749039 
conv_59_param_0 18.254169 35.747749 32.675243 21.078354 39.779449 29.890772 28.598198 30.174906 54.589855 28.572456 58.948933 34.206898 38.949692 44.963173 31.983879 66.514404 28.141844 27.294928 47.879337 32.309414 51.407288 35.747749 56.383659 38.384521 37.835518 45.740635 22.969610 37.678337 39.045509 24.799999 46.375458 38.338165 38.712196 22.870317 28.042402 43.604397 32.827301 28.598198 64.129295 50.069401 25.173672 43.484932 36.655888 28.067198 60.235294 18.940334 36.719490 18.974298 30.909445 30.146248 58.460403 35.687466 31.000000 27.821209 39.556385 61.341064 40.645325 34.429501 32.292980 23.358353 27.772528 39.954689 26.901695 30.089100 
conv_60_param_0 233.899277 200.691360 374.508270 194.391632 289.639191 159.274948 123.385201 164.513596 270.651398 149.566422 168.346924 162.763458 320.512634 266.491791 110.397285 296.236908 189.436264 237.097534 147.446716 223.258362 187.524155 185.385605 187.794952 366.332397 454.713287 294.392761 260.096008 167.803864 87.163536 275.233856 193.523804 196.298874 321.503082 149.308838 238.401474 124.567047 228.354691 207.744415 189.851089 112.595673 179.748444 228.957748 205.123032 213.018845 300.341797 216.386017 221.358292 333.884460 150.257660 166.408188 247.239548 214.777863 220.794571 254.746323 197.942154 156.495789 282.559479 169.554108 271.782654 312.427643 163.582397 141.510330 147.363174 162.154617 
conv_61_param_0 389.949036 295.228149 370.771210 261.534454 234.532013 138.717865 283.174744 251.300476 216.026581 274.507660 144.900284 128.126114 350.061920 346.563629 227.754822 178.026016 305.097961 468.219635 453.523987 148.371933 278.177551 228.154388 464.042816 359.994476 237.313873 384.473022 442.716583 224.414154 170.778732 158.305542 300.515320 170.331375 305.277008 342.908386 225.191345 472.043549 119.859909 273.929443 198.395111 103.376785 144.497772 470.336334 357.029510 230.991119 241.949768 308.536194 330.910950 278.923309 333.456421 262.458130 113.282227 475.930481 196.595612 316.803894 241.724915 304.562073 284.724670 325.323334 216.566193 263.121887 269.949158 176.695648 227.158081 288.995544 311.678864 250.333008 320.315277 240.384476 385.327393 227.954422 290.772491 327.783234 254.124084 218.201340 186.181824 278.475372 113.380997 147.363174 438.610443 287.716827 291.587433 361.244446 209.417068 297.082825 253.258026 481.213684 233.269958 347.026031 267.864044 229.766785 222.304276 256.504944 203.996857 508.248169 264.325195 313.936035 391.710846 224.996536 473.332123 232.021408 366.849091 193.667908 166.621399 220.233704 216.386017 171.003281 171.793930 318.940521 212.150085 205.284927 343.361053 256.504944 323.100616 283.792694 322.900055 233.689133 252.031006 307.260498 385.042206 279.974152 187.794952 186.048645 211.460159 276.697876 183.683609 192.949554 148.202850 123.385201 
conv_62_param_0 244.221603 128.189255 491.210571 481.213684 173.281815 263.521790 157.538467 566.966736 162.154617 464.872192 648.618469 191.528717 427.437958 153.811951 192.806519 589.452698 55.814590 207.744415 130.832993 578.312378 491.674866 226.367279 442.716583 402.003082 123.035004 492.606049 124.328873 261.403015 621.867310 371.565704 501.631622 180.747742 256.252228 506.023346 502.600952 355.565277 545.560547 315.076935 126.015503 468.641449 204.156982 173.513016 192.806519 469.064026 355.322418 604.171875 100.734314 380.814056 494.009491 111.917381 149.394608 276.992554 150.170898 132.973419 228.354691 202.882996 191.669861 550.467712 228.957748 533.804016 562.065918 203.996857 174.561081 610.912537 245.142319 112.790977 148.541412 383.905548 170.554749 373.969818 239.719818 417.489563 279.072968 459.533569 151.306580 252.520386 185.915649 548.147522 123.973305 106.161636 122.686790 197.791641 141.510330 327.576813 408.634735 161.050156 151.394638 220.794571 566.657959 530.808167 182.012604 506.023346 91.776993 588.452515 465.704559 354.595764 251.300476 444.608551 494.479095 182.267700 254.000000 169.113129 508.248169 268.140198 226.170441 542.997925 660.561279 166.195526 66.828369 171.567276 104.456223 198.243896 381.652252 180.371704 215.133163 118.548767 180.873428 419.509674 279.823547 189.298401 163.891617 242.400742 446.133789 59.600368 132.837585 126.629013 210.945663 472.043549 157.921066 132.905472 77.733414 734.215942 537.666138 498.268188 135.678665 464.872192 153.902954 539.898315 273.785278 444.228851 254.248291 431.694611 450.382690 227.754822 392.301666 487.984985 463.629242 479.439636 332.391052 82.256798 453.919708 392.006042 485.706818 196.298874 534.352356 416.153595 193.236252 146.781036 170.331375 203.199997 446.900330 475.495422 217.108521 473.332123 107.388931 61.227871 146.698257 104.624298 242.626862 417.154785 595.526062 167.695679 427.087036 304.919098 226.564453 172.591904 309.269928 428.847473 199.920059 297.252563 411.870148 151.042969 444.608551 469.064026 139.312271 310.192017 177.056503 149.824890 193.812225 172.363159 329.652710 527.845764 455.908844 258.544739 231.402130 62.885880 99.730064 320.118164 338.006500 437.872040 462.392883 441.589142 162.661667 398.614563 140.820786 408.634735 632.452271 358.012390 587.787598 497.315491 362.755920 126.752434 187.389053 259.318054 372.363647 159.177475 108.735786 360.243774 785.788513 550.176636 721.987488 352.433594 209.417068 321.701904 162.865372 825.701599 95.553268 425.689026 462.804260 255.246323 187.254135 457.110718 133.109512 232.436096 257.776001 300.689026 133.725449 150.867752 466.958710 533.256775 148.456619 410.569855 530.267090 150.518524 229.766785 158.982880 190.128662 209.924133 380.535492 216.386017 730.094055 541.302795 186.048645 106.596718 635.931519 214.955368 
conv_63_param_0 30.493755 117.244690 37.323929 40.361092 74.560188 352.711121 84.201591 110.606270 39.729664 57.455204 70.385811 88.608513 79.310432 113.068565 51.996723 42.268974 72.474884 69.805389 59.445694 40.619320 48.649807 209.186157 30.879377 41.823452 52.730896 46.958580 38.735813 39.804390 80.670898 207.307755 63.583374 61.163776 65.049179 67.901604 69.767036 82.936646 60.580154 203.813797 70.975967 88.856544 50.547771 85.333336 46.005798 56.888889 60.292496 32.946548 68.933769 46.443306 70.346817 27.675676 107.789474 56.584671 61.163776 54.542953 76.261864 65.115898 45.972485 65.015877 52.296539 26.608549 60.754066 75.716156 107.606781 60.812260 
conv_64_param_0 22.013870 6.680135 24.761311 27.271477 7.536562 22.136681 9.330982 5.882876 29.556797 18.243679 22.903318 21.008604 21.697882 28.495512 5.792701 5.473104 11.248759 26.856176 25.579372 12.143841 6.128185 14.764651 7.188406 19.716770 11.644901 34.617229 15.637439 35.950169 44.867844 7.041704 11.880239 25.133808 21.261889 13.635738 20.387926 11.435159 19.729025 18.917759 43.395763 4.844933 6.569536 15.983888 18.412992 19.450981 23.566444 18.067160 31.775776 14.095915 22.969610 8.292581 22.307800 18.455814 8.574824 35.667416 37.040840 36.933102 36.216770 26.169827 27.436474 15.484878 13.450848 8.842340 23.760479 18.563744 
conv_65_param_0 426.386871 425.689026 461.163116 488.902252 608.411682 586.462219 877.220886 743.131409 825.046814 1067.608032 1304.556763 946.664246 976.886414 1124.739502 1298.046143 1040.384033 562.065918 510.743256 574.480408 547.282471 612.350769 690.367615 797.840515 914.221436 1220.391846 1040.384033 987.081604 1048.774170 1169.627930 1337.254517 1562.138184 1404.026978 473.763214 457.110718 474.195068 704.389954 776.985840 593.149353 764.426147 667.340576 817.269470 1016.000000 944.944580 1051.423950 1209.748779 1369.827515 1518.808716 1137.031738 435.307098 459.533569 467.798553 633.222168 522.806030 749.556213 714.549438 801.528503 675.135620 802.765442 1180.912598 1286.807617 1479.920288 1721.065308 1948.284668 1150.231079 
convdw_175_param_0 292.900909 305.456268 245.837433 203.836990 185.782852 289.962097 267.864044 300.515320 302.965637 282.713043 238.620178 167.049454 8.148371 183.553986 209.585815 187.930634 249.372955 200.227875 71.298248 234.955734 249.372955 176.695648 98.446632 267.726196 245.837433 254.372620 252.031006 244.681091 166.621399 347.954529 166.301788 204.477982 177.177109 236.666061 275.817596 150.084244 184.203964 274.362854 404.818665 168.455963 234.320724 401.382721 241.949768 289.639191 232.021408 434.943146 265.133545 120.414818 318.940521 283.792694 288.195007 412.523407 74.101425 306.175385 184.858566 398.920258 430.622528 308.902618 250.815811 83.632156 181.251572 364.535400 223.642303 356.540100 
conv_66_param_0 304.205841 99.349121 63.500000 98.971077 114.781998 269.250519 118.656937 278.773834 499.224579 164.930878 67.104233 63.811581 221.358292 157.443100 153.811951 187.389053 135.820358 175.859360 106.684166 216.026581 139.163193 105.216827 244.911484 107.300331 115.290779 255.371628 99.273285 226.367279 204.477982 107.388931 230.786163 143.224670 144.739014 163.994949 187.389053 134.694977 201.156998 258.031738 157.443100 199.154678 101.125969 135.891327 206.425400 126.505836 204.477982 281.489166 258.802002 170.108566 170.108566 185.253555 132.095474 127.498039 107.744820 175.503372 129.788422 166.621399 58.580181 229.563995 127.248535 150.084244 229.361557 182.523514 181.125351 150.692932 159.568100 98.372162 264.863556 102.561516 123.502373 99.197556 241.724915 672.952148 95.343109 115.393082 153.448975 45.695011 85.221497 131.627533 149.394608 169.333328 
convdw_176_param_0 19.958256 362.503143 344.498016 460.754639 314.505432 62.885880 238.839310 305.815399 80.875626 312.615387 350.770050 594.165649 155.746109 85.896965 197.641342 457.110718 56.888889 117.160362 294.226257 200.073853 293.893799 225.581955 38.774002 303.142181 503.574066 36.428013 470.336334 393.786530 99.806602 373.432892 227.954422 334.959442 479.881927 237.747711 280.729614 515.296692 69.993538 78.106911 37.092983 79.980316 315.459076 295.228149 277.435730 443.471436 186.048645 255.497055 144.578094 359.248627 81.739784 50.602333 129.015869 119.310089 203.677368 114.883392 109.560234 270.370056 528.919189 118.548767 364.280121 192.663696 100.812401 180.873428 118.225456 339.550903 405.765991 430.266327 434.579773 285.192993 591.463318 843.782654 55.245541 27.413153 528.919189 295.395813 159.862320 509.243256 382.213074 221.358292 182.651688 361.495483 
conv_67_param_0 47.393585 64.189537 48.273201 60.319111 40.488171 72.937744 50.367157 66.828369 52.481033 72.088692 58.369839 82.465439 57.289867 60.543762 62.523075 53.561779 56.839161 87.692513 39.648781 44.968189 54.458961 71.337357 49.865032 49.000755 57.850533 73.184021 80.674934 46.813534 37.914867 54.872574 54.367893 49.372818 40.287483 42.527142 16.545547 35.167118 65.350754 45.376133 46.712643 69.768242 35.747112 47.016632 57.645390 56.444443 43.875843 61.517502 71.651794 39.600487 43.669579 74.440758 58.474819 40.113510 72.978676 48.890224 65.780472 45.061676 64.316521 45.888496 64.764938 77.409523 37.804649 29.263727 48.816818 44.782368 36.245262 49.485538 43.349335 71.730835 58.161003 79.152771 55.105083 46.779858 50.018463 43.846256 43.262806 57.189095 64.894211 47.601757 38.339622 56.249134 
conv_68_param_0 506.023346 657.638428 870.614197 1002.296753 917.446228 720.487549 1048.774170 936.439270 817.269470 721.486816 1033.151978 939.822937 766.114868 998.449158 1106.203125 1008.124023 703.437439 963.318542 1024.000000 1039.344604 1003.263245 889.217102 1062.700684 1025.514038 930.576050 864.106323 718.497253 873.538208 1041.425415 842.416199 1039.344604 1132.698975 911.817688 808.379150 896.882751 681.325500 993.680969 800.911499 943.231201 928.914307 1024.000000 1049.832520 1134.551758 928.914307 907.839417 752.266113 687.629883 989.899170 1162.440186 919.067139 715.040527 666.485596 1096.295044 1341.565430 734.215942 993.680969 720.487549 1332.117798 799.066040 1018.985291 866.264771 891.502991 766.114868 1011.063171 857.694946 733.181091 1026.525879 1074.222046 1072.560791 924.785767 1264.136108 1031.104004 739.434265 909.426575 1078.118164 871.343384 684.913757 1102.101685 1523.256226 1028.047485 
conv_69_param_0 39.854362 49.872742 62.243137 57.559383 46.307804 78.671623 53.306465 67.468651 56.433777 66.030159 29.947170 56.991024 95.686508 45.609196 26.083813 61.459827 58.086002 73.058685 35.349667 80.466415 82.398445 46.993340 55.015598 38.500908 47.132889 57.455204 87.994453 29.667290 28.701628 65.722565 64.750641 72.268639 12.371005 51.490673 64.389450 65.722565 64.520325 98.126740 17.714285 96.048409 46.477306 15.507572 38.315025 22.260870 40.880875 103.738564 63.046673 64.096924 24.722742 27.365517 78.720398 75.356674 18.694935 77.899384 63.015385 49.911949 31.000000 85.736664 58.406624 74.429077 54.078365 62.396069 52.382839 28.292336 
conv_70_param_0 17.753916 66.899895 34.060085 28.191830 76.124702 55.642418 38.291920 14.875352 49.911949 69.461708 27.154833 40.030266 27.627502 16.849257 60.007561 22.771879 16.611198 15.016084 12.883117 96.413063 10.273139 8.987542 62.828304 25.476725 35.767887 62.921703 32.358818 18.477299 15.991940 19.145960 82.291641 33.896423 23.289803 81.083015 27.271477 6.912892 9.913804 16.262295 12.789686 27.224699 36.634739 19.309002 19.510756 25.955847 14.158787 14.615101 15.130601 80.979591 60.987511 61.222759 11.435159 32.541260 11.146068 16.320822 26.475397 39.979851 26.321724 44.150208 18.805687 30.493755 9.689866 16.524727 12.527229 11.933835 
conv_71_param_0 404.818665 403.249603 428.141571 573.214355 733.181091 750.096619 821.139709 655.153625 905.469116 792.371643 939.822937 1085.429321 1236.344604 1242.249512 1309.482666 991.786438 441.964325 455.509644 531.893677 527.043579 494.009491 625.983154 666.485596 781.655884 935.597107 1096.872925 1039.864014 1109.151367 1224.701538 1377.992065 1587.160889 1512.186035 393.488647 395.884308 473.763214 546.420166 561.459229 662.243164 711.616943 893.800659 757.193604 861.958557 1093.989502 1330.414307 1082.042603 1009.101868 1026.525879 804.627991 476.802948 468.641449 539.059082 558.745422 630.918152 508.496582 665.632751 863.389221 682.218994 847.218262 1059.993896 1309.482666 1358.203613 1291.600220 1335.537842 1047.718018 
convdw_177_param_0 96.331848 139.761414 152.191925 416.486786 118.765297 343.587860 300.689026 162.559998 164.098419 190.267746 327.989899 120.638222 85.783638 111.247223 238.620178 351.481079 275.671448 106.075043 165.560791 238.183151 91.776993 294.893433 63.438049 176.815765 252.031006 110.585037 168.455963 122.225563 280.578217 78.960533 134.974579 118.333031 101.838684 177.297882 199.613205 112.303970 263.789032 112.013779 196.447128 301.735504 142.753021 256.504944 118.548767 111.342468 252.520386 116.634979 137.109116 105.472832 305.815399 70.678261 197.641342 91.133850 234.109818 305.456268 248.183212 210.263535 234.109818 254.746323 133.519501 80.128159 80.976341 268.416931 335.175262 85.109947 220.047379 229.766785 92.758919 168.346924 100.500771 137.326294 98.820671 168.238037 136.892639 110.116852 460.346893 229.766785 94.306023 89.073975 126.015503 243.992493 284.724670 44.906078 205.447083 111.057213 128.505936 291.914703 87.163536 135.678665 60.883896 106.684166 128.379074 67.733330 37.008537 332.603577 171.680527 243.535583 346.794678 371.831299 286.291687 248.183212 250.092300 211.804565 162.967422 130.832993 245.605286 184.203964 83.847839 321.304504 259.966003 288.354767 154.268097 285.192993 244.451126 234.320724 164.098419 248.895691 255.748276 388.783264 251.300476 273.066681 275.525421 261.009521 67.910179 323.905365 122.918716 237.965240 233.060928 100.578499 
conv_72_param_0 194.391632 99.349121 229.969940 909.426575 195.560898 179.997238 129.015869 99.730064 271.357330 263.922882 216.206146 440.467407 146.781036 85.445465 241.949768 576.070862 179.129471 134.139252 125.650238 232.228577 288.674805 103.130852 170.331375 162.255768 456.709381 127.248535 166.621399 210.263535 242.175049 162.865372 163.685333 254.996078 144.578094 181.377960 116.844566 265.404083 249.852066 151.747955 252.275467 95.905602 168.893509 107.923653 125.166504 246.070007 593.149353 213.543518 254.000000 110.491081 373.969818 67.035049 266.765137 160.553085 84.227982 141.433380 230.377319 289.156189 143.540833 165.983414 175.621872 225.581955 247.946609 203.517990 205.447083 301.037048 153.721039 171.907471 97.780449 138.940170 248.183212 171.680527 255.371628 66.897118 156.873337 103.294678 92.429283 162.865372 283.328979 144.417542 264.056854 176.455902 
convdw_178_param_0 316.803894 261.534454 55.339573 20.655655 89.688278 314.505432 438.980591 652.278381 83.257362 365.303375 131.295303 58.845249 362.503143 29.664234 82.049210 113.678322 170.890930 402.313995 562.673889 285.192993 57.594330 483.000916 472.043549 365.303375 15.813230 753.355530 61.112782 225.777771 158.885773 327.576813 368.930511 309.822510 326.139191 120.526413 608.411682 312.991577 163.069595 541.302795 206.589355 529.727112 462.392883 406.399994 185.253555 364.535400 16.470112 240.606842 81.026794 444.228851 180.999298 657.638428 340.217133 327.783234 391.416107 489.362183 290.935120 150.170898 404.818665 331.966827 231.402130 350.061920 82.517769 311.119629 990.841919 70.334236 293.065918 472.901825 519.932007 1060.534180 29.475975 317.190247 78.578850 681.771973 282.866760 470.761993 672.517151 241.052826 301.211334 72.048752 149.824890 205.772156 
conv_73_param_0 51.729515 50.095531 66.622948 67.208267 85.953735 47.221497 64.700500 56.839161 65.252380 59.655045 40.488171 71.103333 64.571999 23.373114 77.640594 58.422283 46.018402 53.650166 62.643547 85.389366 60.600185 85.727097 49.903301 59.491310 50.641743 63.007751 60.543762 66.114899 41.285080 56.641113 67.557404 62.343239 85.333336 42.778946 46.050991 71.220154 49.865032 59.655045 57.189095 31.937132 59.220402 60.770092 70.334236 85.953735 53.167622 73.390518 48.237389 66.014214 48.273201 36.124443 70.563210 72.008858 68.772079 79.735130 44.999310 60.713352 71.025665 52.994293 50.211582 71.889442 63.686581 57.138840 81.688438 23.239456 94.306023 10.433889 54.051537 65.154312 86.468086 76.815125 77.594269 56.591820 52.019199 66.931549 70.601517 67.981178 42.360912 55.623611 66.384888 60.770092 
conv_74_param_0 552.514099 1033.665161 827.014282 1140.771973 947.526428 701.067383 856.988464 763.864929 912.617554 1061.074951 929.744385 893.800659 1106.791504 864.106323 925.608521 611.990601 938.974731 933.917419 1078.118164 1000.369202 1041.946899 838.343262 987.081604 1109.151367 1001.332031 1091.121094 721.987488 849.293091 1081.480225 652.687561 1058.915039 1176.905029 1048.245850 845.840637 857.694946 1216.823364 1243.734619 771.226074 1135.170776 975.969971 1130.237915 926.432739 849.293091 730.606750 828.331238 853.473328 733.698181 738.384644 1069.803589 814.709473 867.709778 765.551147 1247.462891 1067.060547 913.418762 701.540100 628.251221 916.637878 729.070801 694.515381 640.236328 957.996338 778.148071 889.977783 1054.087158 1151.504150 1243.734619 800.911499 947.526428 1036.239014 1350.271240 938.128052 967.799072 778.730530 894.569214 1002.296753 878.702698 1161.142822 1356.432861 1141.397705 
conv_75_param_0 71.135017 150.445496 55.642418 62.030289 32.032291 112.368141 62.273663 169.075897 159.117798 136.167297 152.615387 112.867554 77.756279 54.170647 178.337082 121.857964 206.801300 136.901352 157.148514 210.225159 121.508133 108.992271 92.615608 79.014313 43.754650 103.738564 141.006104 125.843407 63.424576 119.901794 169.301331 159.417450 24.799999 26.409317 98.814011 109.556511 155.703247 94.476189 143.882156 110.413910 78.283600 176.478104 264.809174 114.495941 65.790672 72.309792 186.181824 134.366135 181.653793 132.889587 113.371429 146.962967 118.780167 36.847359 41.012920 155.227386 138.468918 153.910309 135.730621 115.854012 141.162872 151.703705 77.377213 174.777695 
conv_76_param_0 19.403423 32.441490 53.621620 72.849113 28.368185 36.911629 26.564016 49.599998 60.464764 14.601656 34.354977 27.436474 79.360001 49.139320 14.247756 33.538300 80.568527 73.909195 39.729664 42.045033 34.541893 105.637268 12.556962 21.219252 30.060606 19.019772 11.394114 16.016146 34.749863 20.572910 57.874203 18.264671 29.529303 88.794403 32.810337 28.521114 16.903088 32.946548 17.823694 35.747749 23.204678 58.948933 24.645964 13.074135 38.901962 38.361328 34.151695 29.474466 81.919998 15.173996 50.953449 25.213661 35.808235 43.694424 21.998613 46.993340 42.156708 19.582973 93.778435 27.131624 43.634365 49.716522 18.661964 49.215504 
conv_77_param_0 406.399994 410.894165 472.472290 531.621887 528.650391 480.768951 475.930481 457.110718 569.449341 728.050415 616.341248 829.652283 665.207153 777.566528 741.542419 637.490173 420.867310 375.861267 467.378265 466.539917 547.858887 517.346619 688.084656 713.569275 692.204895 610.912537 868.434082 880.934814 951.860962 1126.566284 1732.529541 3666.551514 382.494110 381.652252 521.757263 491.674866 539.338501 569.449341 530.267090 788.767273 742.601013 557.249084 758.297363 654.741333 895.339050 1039.864014 963.318542 891.502991 430.622528 474.627747 520.973450 543.281433 528.919189 516.063477 483.000916 588.785522 543.565308 576.709534 551.342896 768.378113 767.811096 891.502991 816.627930 757.193604 
convdw_179_param_0 261.009521 431.694611 238.839310 165.455475 429.910736 108.644943 142.284470 143.461670 310.377075 158.885773 68.052330 241.500458 140.440598 72.248886 282.406067 168.455963 126.752434 226.170441 613.072510 140.440598 130.178177 171.003281 146.781036 135.678665 216.386017 214.070786 474.195068 252.275467 186.315186 94.925545 204.317368 92.758919 332.391052 143.540833 175.503372 95.273262 128.824173 132.297043 367.886841 165.771835 269.669250 299.132843 193.236252 143.938019 95.693893 110.585037 342.682465 154.085312 149.223175 270.089294 167.156815 291.424103 182.012604 407.673981 277.880341 385.042206 227.158081 171.680527 263.789032 135.255325 198.546570 318.354950 146.698257 117.266006 234.532013 358.505859 453.523987 89.564735 286.291687 189.298401 239.058823 154.176651 214.247116 87.163536 376.405212 256.252228 453.523987 178.026016 303.142181 122.686790 316.418488 314.695709 478.557495 153.358490 350.770050 247.946609 429.910736 359.496887 144.177383 200.227875 86.067505 142.518356 176.575699 216.026581 150.605667 244.221603 294.559448 107.655632 187.659454 269.529541 207.910477 424.300171 147.697906 136.964722 156.401688 119.970482 176.815765 309.638092 69.880707 264.728760 102.561516 275.233856 226.564453 375.861267 246.070007 141.587372 424.300171 271.498962 89.998619 445.751495 326.139191 158.498474 171.454193 186.181824 452.734558 225.191345 241.500458 201.001541 343.134552 335.175262 63.874264 300.168488 176.695648 173.628845 386.472504 218.384552 111.057213 191.669861 225.581955 107.211868 88.287849 159.960632 210.945663 261.665985 97.195816 204.961380 163.582397 171.454193 144.658508 115.598221 323.502502 108.463722 157.347855 175.859360 175.503372 199.766510 72.008858 236.021774 339.329407 344.498016 359.248627 133.109512 271.640717 127.124146 130.635864 158.885773 139.386917 110.679146 266.082855 85.727097 194.974518 398.309357 148.711258 214.777863 187.254135 420.527069 156.213821 111.725082 150.692932 144.819595 217.108521 313.746674 203.996857 146.698257 177.297882 135.114807 144.819595 450.772949 50.018463 300.515320 38.797134 175.740540 372.363647 207.413071 226.564453 100.656349 192.378693 279.974152 49.037708 200.846329 185.650253 147.446716 322.299866 289.478027 429.555725 101.362434 44.968189 239.058823 136.964722 193.379929 118.010887 153.358490 449.993073 432.412292 142.753021 236.666061 171.567276 249.134094 189.989777 192.521103 229.563995 211.460159 420.867310 181.125351 247.710480 164.098419 161.450027 141.433380 200.536621 127.811302 344.270020 232.644012 273.641235 244.911484 308.902618 183.295273 302.613159 342.006561 140.213470 97.195816 315.076935 76.905975 219.490295 369.192322 170.778732 219.490295 210.945663 487.527649 192.806519 398.920258 135.962357 163.582397 355.079865 201.001541 171.567276 172.135010 
conv_78_param_0 317.577545 89.441544 344.726318 83.417572 276.257050 194.974518 340.217133 179.006195 213.193436 174.795700 349.591400 283.328979 205.447083 265.946838 166.089401 99.121948 94.511627 254.000000 159.470261 164.930878 304.205841 212.323273 223.834763 197.042419 236.666061 208.243393 242.175049 204.477982 252.520386 233.269958 207.082809 161.650711 224.802078 162.255768 216.927444 309.269928 257.520782 334.959442 103.541405 303.673096 175.266846 448.828308 187.794952 204.800003 227.356644 172.021164 442.340149 145.712051 184.596161 222.875748 211.460159 228.957748 385.899109 187.254135 294.726349 187.930634 213.018845 244.221603 90.562675 171.228439 244.221603 170.554749 287.398895 259.318054 216.026581 200.691360 361.998596 189.436264 276.697876 219.675674 293.727844 249.852066 162.865372 166.301788 156.590012 188.475357 980.569275 138.348938 159.177475 428.141571 
convdw_180_param_0 100.423164 36.550873 83.150894 27.835617 377.497833 437.136139 128.888000 756.093018 797.229126 686.722107 336.911926 332.178802 461.982239 633.607788 735.773682 26.540409 463.629242 674.697815 872.073792 495.893219 378.596802 202.094788 444.608551 716.024780 780.483093 483.899536 653.918274 532.165710 615.611816 257.266083 328.611511 114.478874 97.414230 112.401039 115.701065 85.896965 417.489563 453.523987 39.456310 380.814056 132.702042 33.124809 1018.985291 548.436462 563.893738 454.713287 338.226257 839.019348 490.747162 809.637329 590.121399 630.918152 96.618126 1037.272217 335.391357 428.141571 133.451004 442.340149 21.445910 141.664490 458.318939 417.489563 541.866638 131.827667 418.497192 759.404358 379.148682 719.988953 194.391632 305.456268 79.200974 613.795898 536.833862 629.010864 149.824890 376.405212 93.425285 658.470886 650.646667 35.551666 
conv_79_param_0 78.769234 26.936205 62.343239 23.189730 51.606350 68.554558 83.257362 48.273201 28.519299 63.811581 54.367893 54.965343 58.792042 58.422283 83.417572 57.492485 90.436714 70.601517 69.321960 59.929955 63.905651 69.395943 51.039246 67.662849 66.081299 82.256798 64.348343 60.263206 57.850533 54.413387 53.605934 72.289047 64.539948 61.227871 78.769234 46.512161 68.954399 63.842907 73.266479 62.764481 33.831425 62.105061 94.101303 59.491310 64.764938 78.673927 54.322472 71.298248 91.906715 56.006889 70.334236 61.927620 84.501625 66.794044 59.874771 73.266479 86.238724 99.501144 93.358223 95.483116 51.647339 79.637474 74.783211 54.277130 70.296219 74.313141 64.316521 70.986900 67.839333 66.384888 62.583252 98.075417 91.197754 75.962616 62.403072 67.733330 63.531021 55.292519 70.563210 68.990982 
conv_80_param_0 454.713287 978.724365 979.645935 951.860962 1015.008789 1055.156128 901.545898 977.804504 1005.201904 920.693787 1199.289917 1190.370728 1108.560425 763.304504 967.799072 1103.855713 1116.890991 909.426575 1201.367188 1015.008789 1013.032104 1145.166748 1090.549316 1085.429321 881.681335 1019.984314 1074.222046 1286.807617 1100.353271 1132.082642 1180.242798 877.961182 1357.317627 1261.836304 936.439270 1102.685791 798.452820 1401.190552 1078.118164 1186.975464 1082.605591 1104.441650 1410.690186 1087.130615 1178.237793 965.105774 1101.518311 1078.118164 1058.376343 779.313843 1265.673950 1264.904541 1211.157104 1079.236572 1189.010254 1227.591797 885.433167 739.960144 938.974731 797.229126 579.278381 1148.960815 1127.787476 1171.603638 1270.310181 1025.008911 1074.776855 1308.659180 819.200012 947.526428 1480.973633 924.785767 1035.208008 983.349731 1016.496338 980.569275 899.986145 1073.114014 1407.826782 921.509277 
conv_1 127.403336 
conv_2 10.440520 
conv_3 3.175931 
conv_4 10.432523 
conv_5 63.944550 
conv_6 3.321664 
conv_7 17.530697 
conv_8 24.806824 
conv_9 46.157925 
conv_10 49.788376 
conv_11 24.754650 
conv_12 67.162033 
conv_13 49.790138 
conv_14 42.355801 
conv_15 56.652187 
conv_16 53.033951 
conv_17 23.125301 
conv_18 67.167709 
conv_19 42.355801 
conv_20 21.327536 
conv_21 42.355801 
conv_22 56.894535 
conv_23 56.646439 
conv_24 49.685863 
conv_25 56.923306 
conv_26 42.569942 
conv_27 17.801882 
conv_28 39.108490 
conv_29 49.685863 
conv_30 17.734133 
conv_31 42.286537 
conv_32 38.967186 
conv_33 19.627365 
conv_34 81.701859 
conv_35 31.693399 
convdw_174 18.318394 
conv_36 39.955448 
conv_37 18.696241 
conv_38 124.092888 
conv_39 28.386129 
conv_40 67.540291 
conv_41 67.243187 
conv_42 64.066399 
conv_43 42.326786 
conv_44 67.162033 
conv_45 60.486149 
conv_46 46.087509 
conv_47 38.794956 
conv_48 46.044788 
conv_49 63.942204 
conv_50 74.381653 
conv_51 42.453320 
conv_52 31.926388 
conv_53 46.141148 
conv_54 52.835987 
conv_55 38.678623 
conv_56 128.179581 
conv_57 49.476398 
conv_58 16.020906 
conv_59 49.663025 
conv_60 38.678623 
conv_61 13.881202 
conv_62 35.468166 
conv_63 46.044788 
conv_64 56.580910 
conv_65 6.872741 
convdw_175 46.044788 
conv_66 24.737402 
convdw_176 38.802959 
conv_67 31.699955 
conv_68 10.131176 
conv_69 46.141148 
conv_70 28.390192 
conv_71 6.869831 
convdw_177 46.141148 
conv_72 24.639154 
convdw_178 31.750486 
conv_73 35.037209 
conv_74 6.321263 
conv_75 31.991344 
conv_76 21.315815 
conv_77 6.949099 
convdw_179 31.991344 
conv_78 17.433952 
convdw_180 24.769238 
conv_79 28.085897 
conv_80 3.323937 
