Conv_0_param_0 919.067139 675.135620 5016.920898 549.595337 745.260742 1786.066895 8868.483398 845.840637 755.543945 708.708435 509.742279 811.531982 887.699646 854.174072 1752.963745 735.253723 703.437439 4734.397949 1039.344604 3896.569336 650.646667 2101.785889 532.983582 602.074097 
Conv_4_param_0 366.849091 723.997192 128.760391 470.336334 487.527649 112.110344 9.026096 338.666656 147.446716 152.102921 411.870148 432.772034 589.786865 531.350342 117.477867 572.268433 522.019043 107.035393 105.816109 188.885986 507.504395 118.225456 565.733521 617.438599 
Conv_6_param_0 409.600006 622.984436 357.766174 969.602966 293.727844 476.366302 211.632217 479.881927 280.124939 205.447083 263.121887 205.447083 239.058823 246.070007 214.600662 239.499084 415.157227 248.895691 247.710480 478.557495 784.012085 385.042206 330.910950 492.140015 214.777863 819.845520 334.743896 143.778885 189.989777 469.487366 178.147949 570.698853 133.588089 209.924133 171.680527 266.491791 277.435730 187.794952 355.808472 479.881927 201.001541 204.156982 402.003082 205.123032 181.377960 167.479721 155.373947 178.883087 393.191223 231.402130 271.498962 276.697876 95.553268 173.628845 822.437927 226.959854 99.883255 150.170898 
Conv_9_param_0 562.673889 183.553986 inf 280.426941 278.624542 911.019287 349.122162 232.436096 285.349426 227.158081 442.716583 102.886078 269.250519 363.770630 412.523407 493.072998 165.666245 438.240936 242.400742 214.423737 247.710480 inf 420.867310 305.815399 248.420242 inf 484.350098 1136.410645 196.744324 inf 500.184601 inf 352.433594 741.014221 151.482819 280.578217 689.909790 222.114426 203.517990 268.140198 128.633041 273.210083 78.106911 3433.610596 272.351837 1005.201904 862.673279 320.118164 389.365265 268.002075 342.231567 452.734558 191.669861 552.807678 247.946609 444.608551 148.881516 372.897491 
Conv_12_param_0 70.334236 79.297562 inf 150.867752 151.659470 42.835308 89.626465 136.247253 107.211868 111.057213 165.455475 107.834160 112.595673 39.289425 205.284927 50.445305 49.260605 44.968189 50.562984 55.718937 135.537262 inf 61.227871 44.598080 181.885315 inf 23.107321 24.593040 94.033264 inf 41.128399 inf 114.680779 80.029541 165.350281 132.095474 80.725014 185.915649 58.005352 135.185028 80.574966 51.688393 158.982880 25.009232 52.523426 18.347630 53.037521 107.923653 204.317368 124.926033 170.108566 66.657097 58.633003 26.649179 60.543762 117.903900 155.932861 40.818581 
Conv_14_param_0 544.133911 571.953796 918.255981 613.433960 306.536255 1276.544800 611.630798 198.243896 231.814621 223.834763 217.471573 380.257324 328.819214 340.885986 477.240356 534.078003 210.093704 479.439636 385.327393 385.042206 279.974152 281.794159 313.368683 192.378693 406.082733 437.503784 380.814056 422.233765 241.724915 258.544739 185.121704 174.093704 264.325195 278.624542 252.275467 275.671448 491.210571 202.882996 449.215881 403.562439 188.066528 320.908081 253.258026 302.085938 278.773834 428.494232 144.981049 250.815811 449.993073 324.107178 294.392761 234.955734 259.966003 568.515869 307.442078 420.867310 385.327393 206.753571 
Conv_24_param_0 208.410263 696.374817 293.065918 448.828308 302.613159 195.120773 276.697876 347.026031 217.289886 583.501953 911.817688 208.912445 599.644958 476.366302 560.551697 421.549438 686.722107 297.763031 443.849823 297.592682 700.123840 329.443939 156.495789 425.340973 inf 514.532166 673.387695 288.835083 248.420242 599.299561 472.043549 570.073425 660.142151 157.443100 373.432892 394.682861 226.564453 854.174072 193.523804 667.340576 327.576813 213.543518 875.744080 341.109497 344.270020 1047.718018 560.853882 519.932007 243.992493 228.756378 349.356628 777.566528 353.391296 336.911926 147.697906 655.153625 377.497833 323.703796 
Conv_27_param_0 47.324600 31.171619 78.578850 44.536987 100.734314 204.961380 38.362244 61.459358 22.253252 98.745636 34.679466 48.927013 50.799999 43.176628 25.105791 45.407822 33.849037 108.463722 81.842667 36.757488 45.061676 42.863548 124.926033 51.565426 15900794.000000 21.834789 49.636642 42.920132 70.448540 26.671041 36.346561 49.111782 59.655045 49.941628 23.289398 58.317490 54.642017 46.712643 44.084068 40.064079 55.576069 43.581768 37.716938 63.438049 68.087959 37.651417 59.819687 26.692940 93.829727 45.791550 97.195816 35.186146 50.211582 50.211582 81.279999 52.186195 61.055401 11.944159 
Conv_29_param_0 312.052795 414.495605 216.927444 545.846802 253.752197 367.367218 704.389954 446.133789 424.300171 591.799744 467.378265 594.165649 484.801483 399.840118 257.138916 346.794678 428.141571 593.149353 383.057434 366.332397 391.710846 264.056854 270.089294 294.559448 360.243774 402.625397 355.322418 409.600006 222.494446 438.240936 261.665985 250.333008 358.258942 477.240356 249.852066 180.496872 518.377686 464.457153 335.607727 323.301422 238.839310 259.576843 293.727844 502.600952 228.154388 169.443649 231.196442 449.604156 203.199997 316.803894 349.591400 290.123810 341.781860 254.000000 447.669525 205.447083 364.025208 593.149353 
Conv_39_param_0 352.672546 480.768951 296.743866 259.447388 213.543518 312.615387 193.092804 489.362183 580.247620 372.363647 385.613037 410.569855 592.136597 273.497375 666.485596 253.752197 266.491791 235.168167 265.810944 563.893738 272.494507 306.716980 342.006561 287.876038 inf 388.202972 402.003082 453.523987 306.536255 698.244324 215.489639 279.974152 1087.698853 168.674454 202.094788 288.835083 344.270020 299.477264 562.065918 320.710236 336.258575 767.811096 197.791641 305.456268 414.495605 557.846619 367.626862 301.211334 235.380997 452.734558 354.354218 478.117645 inf 565.118958 484.350098 226.564453 606.284363 487.071167 
Conv_42_param_0 60.543762 64.894211 79.249237 58.580181 39.697193 57.850533 73.556564 53.650166 38.612827 56.444443 111.437874 73.598190 57.645390 56.055172 37.284405 89.073975 84.391953 84.998695 42.223377 63.007751 87.633423 83.793816 63.749020 60.040627 inf 94.718132 73.019653 50.562984 49.865032 49.903301 53.783291 134.694977 33.379875 50.056969 45.407822 54.780117 53.738842 52.438709 66.148521 65.416496 65.089088 42.582844 136.533340 51.770702 55.766724 46.478912 84.998695 51.977619 59.874771 54.006645 59.709827 58.580181 inf 39.408485 39.916512 67.347488 162.154617 40.614616 
Conv_44_param_0 332.178802 316.803894 289.639191 381.372437 452.340881 310.562378 400.147705 429.555725 477.240356 493.072998 495.893219 617.438599 547.282471 470.336334 308.719299 385.327393 384.189056 377.497833 487.071167 611.630798 289.800568 304.740479 529.996948 444.228851 410.569855 320.908081 193.667908 617.438599 341.333344 342.682465 349.356628 298.104309 389.656921 455.908844 392.894257 538.501038 327.164795 326.959137 537.388428 388.202972 312.052795 347.257690 372.363647 355.322418 347.026031 310.933655 391.710846 606.284363 425.689026 275.379578 392.894257 298.617676 296.913239 357.274719 329.652710 301.385864 375.861267 495.893219 
Conv_54_param_0 784.603333 345.872345 401.073242 219.675674 635.155090 233.060928 333.456421 978.724365 402.937256 206.918060 489.822968 504.062012 328.404053 649.023071 577.029419 546.707275 271.215851 241.724915 436.769104 436.769104 356.052032 458.723114 224.607941 257.138916 511.496552 401.382721 397.093140 338.666656 352.194977 716.024780 347.721924 587.124146 322.499695 260.486725 598.265686 224.802078 438.980591 721.486816 224.802078 240.384476 624.105591 361.495483 302.261475 516.832581 226.959854 281.946869 529.996948 249.852066 406.717743 470.336334 296.913239 417.824890 437.136139 468.219635 678.216431 195.120773 272.494507 843.782654 
Conv_57_param_0 35.454742 81.534798 53.342083 35.571117 56.938705 56.493484 56.839161 33.796257 60.263206 80.674934 71.376511 58.792042 52.354267 61.170273 49.447910 50.367157 73.723358 62.523075 58.422283 104.624298 42.778946 61.055401 82.152878 65.614532 58.213070 63.655407 56.346619 69.470085 52.908054 34.642513 84.173462 54.965343 40.513397 74.912445 26.627356 76.453850 64.604073 34.477200 57.390999 103.130852 53.473682 38.294464 47.221497 53.124184 67.910179 78.342171 72.048752 73.060677 166.514725 77.640594 58.057144 62.045803 65.548386 55.198643 54.231861 57.645390 44.598080 25.701185 
Conv_59_param_0 356.540100 443.471436 354.113007 366.074585 393.191223 339.550903 559.647095 568.515869 514.023743 572.583374 385.042206 326.139191 413.507141 218.018448 405.765991 233.689133 320.512634 444.988892 345.642517 351.006744 232.644012 372.363647 307.805908 320.118164 669.057251 502.600952 286.449341 257.520782 317.771545 381.093048 653.918274 232.436096 347.954529 585.472168 346.102448 497.315491 455.111115 326.139191 510.242279 531.621887 254.746323 266.628387 348.654144 437.872040 392.301666 240.829636 290.935120 380.814056 398.614563 406.082733 389.656921 444.608551 214.955368 270.933319 477.678619 510.994110 619.276184 473.763214 
Conv_68_param_0 143.858414 193.236252 220.047379 212.323273 207.413071 268.972076 222.304276 193.523804 169.886353 192.094528 198.395111 211.804565 181.504532 154.359650 233.479355 284.568939 154.085312 204.317368 281.336945 276.697876 179.252930 241.276443 187.524155 211.116882 140.592438 127.000000 296.405701 219.305222 228.555359 179.624313 444.988892 236.666061 158.401947 193.523804 273.785278 179.748444 279.222748 142.988449 230.377319 194.246460 148.711258 227.954422 249.134094 149.308838 189.574341 155.932861 224.996536 200.073853 183.683609 176.216797 292.406982 254.000000 245.142319 183.813431 218.568069 213.718979 152.459549 180.371704 234.532013 140.213470 226.170441 236.881607 333.456421 280.275848 131.162888 170.219894 162.255768 157.443100 208.912445 188.202606 206.753571 267.588470 289.800568 189.160721 209.248596 246.536499 233.479355 155.003571 210.093704 313.180023 188.748917 129.465408 191.952774 188.202606 321.106171 196.447128 286.765167 180.121887 212.844513 324.107178 286.607178 152.728134 196.298874 199.307281 274.652588 167.479721 210.604050 255.874084 165.560791 168.783905 213.543518 175.266846 177.177109 168.129288 219.675674 267.864044 213.018845 194.828461 224.996536 147.949936 243.763824 153.268127 166.195526 125.528961 223.258362 199.154678 
Conv_70_param_0 417.154785 1164.391724 455.908844 402.625397 383.622406 464.042816 559.948303 598.609924 192.378693 926.432739 697.776001 1056.227417 566.349487 514.023743 686.722107 347.721924 676.452515 839.696533 549.015320 860.532654 494.009491 272.209320 681.771973 620.014282 477.240356 287.876038 615.976318 565.733521 626.360046 494.949585 472.901825 543.281433 261.797699 199.307281 538.222473 371.565704 500.184601 392.597748 410.246063 226.564453 227.158081 322.499695 356.540100 425.689026 525.181213 458.318939 792.371643 354.354218 357.274719 238.620178 277.583771 391.416107 384.189056 651.869690 355.808472 261.797699 368.669037 347.954529 407.035980 434.579773 625.983154 670.782715 246.303024 263.789032 433.854889 448.828308 221.735718 388.783264 386.759857 238.401474 340.439789 464.042816 307.260498 276.403839 351.243744 327.783234 269.111237 404.189575 441.589142 584.157227 311.119629 488.902252 550.176636 318.549896 513.009888 508.496582 525.446472 257.648346 307.805908 236.021774 719.988953 360.993744 446.133789 455.908844 307.988159 537.666138 570.385986 365.047028 349.356628 344.726318 454.713287 404.818665 628.630798 651.461487 502.600952 286.765167 319.136200 431.336639 214.600662 375.318909 542.714661 267.039001 237.530594 409.277740 459.533569 408.313965 
Conv_73_param_0 inf 315.076935 591.799744 390.827942 inf 447.669525 485.253723 212.496735 210.433655 inf 341.109497 417.824890 216.746674 373.432892 337.567810 319.724640 488.443207 376.950714 272.923401 inf 339.329407 523.068909 264.056854 334.098907 721.987488 inf 233.689133 inf 393.488647 542.714661 435.671692 434.943146 inf 340.439789 355.808472 328.611511 378.046509 564.199585 352.672546 288.354767 414.165619 422.233765 374.238861 276.992554 369.192322 356.784637 298.617676 296.236908 337.348907 414.495605 277.435730 351.006744 292.736084 471.615601 318.354950 414.495605 273.785278 506.516052 314.505432 370.243408 inf 363.009064 269.529541 399.226410 368.407928 618.539856 272.923401 228.756378 327.370667 220.982162 397.093140 427.437958 464.872192 289.156189 348.888000 327.370667 379.702179 429.910736 371.035675 329.861755 333.456421 322.900055 233.689133 431.694611 320.710236 247.946609 299.477264 318.745087 426.736664 426.736664 260.747864 327.164795 320.512634 398.004578 486.615540 461.982239 324.714111 305.815399 25067134.000000 409.922760 338.226257 inf 315.650482 398.004578 361.746857 346.794678 395.282684 797.840515 409.277740 482.552887 226.761993 261.403015 522.543457 313.180023 407.993713 361.998596 
Conv_76_param_0 426141280.000000 119.529411 97.927711 89.135025 inf 98.372162 100.113937 84.998695 108.373337 inf 68.735733 92.232628 76.364067 96.761902 114.883392 132.973419 73.765175 65.647652 137.616928 inf 114.579735 93.090912 107.744820 80.624924 88.407883 inf 109.009224 inf 119.091576 116.530464 113.678322 42.807110 43483804.000000 114.579735 101.047394 67.312630 101.362434 77.501785 100.268311 78.247894 96.689964 87.751686 94.649200 67.592514 80.078819 93.829727 77.826454 160.950500 93.829727 120.638222 95.133873 92.167259 64.668327 114.378189 59.005444 81.229233 120.526413 91.647636 107.566582 99.730064 60877328.000000 80.725014 56.493484 75.873978 102.886078 70.448540 100.036926 70.909485 98.075417 59.112728 82.101013 59.382648 115.598221 106.509422 131.827667 120.638222 79.152771 77.317482 109.560234 89.812157 74.185966 124.567047 88.227951 92.036804 132.028427 111.342468 93.762077 119.529411 71.929207 45.953358 82.991707 67.557404 103.541405 113.977211 98.971077 82.991707 62.105061 64.926613 1404552.750000 96.978371 96.546402 inf 111.057213 98.971077 64.539948 75.302834 92.232628 72.248886 76.185120 82.413177 63.007751 99.883255 86.930481 70.755165 82.256798 131.961441 
Conv_78_param_0 682.666687 545.560547 584.157227 544.989014 815.347961 543.849426 705.345093 491.674866 337.567810 731.634338 966.001831 513.009888 870.614197 727.541260 610.195923 426.037689 601.378052 447.669525 723.997192 452.734558 815.347961 610.912537 568.515869 316.611084 713.080200 568.826660 704.867188 706.302795 406.717743 510.994110 531.893677 634.767517 356.295898 424.646545 534.352356 659.305420 270.229614 243.763824 519.672302 506.023346 364.535400 379.702179 473.332123 547.570557 522.806030 640.630554 322.299866 278.177551 388.202972 447.669525 280.275848 335.607727 700.123840 447.669525 476.366302 466.958710 464.042816 333.456421 487.527649 431.336639 686.722107 920.693787 568.515869 1080.918457 551.050842 993.680969 266.219025 506.023346 737.338074 301.385864 440.094757 407.035980 762.744873 499.704132 742.071350 572.898682 476.802948 333.242798 710.644836 342.682465 559.948303 752.266113 467.378265 437.136139 949.255493 461.163116 415.488831 336.693848 592.811401 510.242279 688.084656 557.846619 385.613037 303.318939 912.617554 339.329407 304.028046 700.123840 712.104065 684.913757 682.218994 479.439636 582.195862 260.486725 427.437958 288.674805 399.533020 550.467712 377.224091 473.763214 579.924194 539.898315 630.153870 272.351837 475.495422 803.385315 
Conv_88_param_0 298.617676 345.183807 440.094757 615.247803 531.893677 490.284637 375.861267 562.673889 673.823853 395.282684 554.280212 324.107178 827.014282 948.390137 inf 560.853882 692.665771 373.701141 407.993713 465.288025 472.472290 292.242706 385.327393 492.606049 563.588318 584.157227 797.229126 inf 478.998169 486.615540 308.536194 282.406067 239.719818 494.009491 809.637329 534.901794 558.145935 392.301666 402.313995 inf 299.304962 685.364929 inf 454.316162 808.379150 666.058899 436.036896 475.930481 559.045654 326.343781 428.847473 233.060928 684.463135 504.550934 547.570557 1173.586060 490.284637 572.583374 268.555511 606.284363 644.599731 680.879578 545.560547 521.234497 inf 592.136597 255.121140 370.771210 369.192322 574.480408 318.354950 317.771545 593.487732 589.786865 592.811401 639.449280 485.706818 inf 501.631622 854.174072 inf 498.745911 661.401123 454.316162 541.021301 491.210571 263.789032 443.471436 752.266113 843.098877 594.845032 720.986816 430.266327 596.550476 817.911926 944.087097 426.386871 439.722748 379.425232 605.931274 676.013000 497.791382 277.583771 535.452393 606.284363 766.679443 627.872070 765.551147 545.274658 561.459229 546.994751 620.384033 347.489655 687.175720 601.378052 599.990784 
Conv_91_param_0 70.410393 71.220154 60.319111 77.733414 62.825119 66.520714 111.152138 67.522324 59.328468 59.005444 48.489185 64.991501 103.789307 27.716965 1065353216.000000 50.367157 66.966011 93.492455 113.380997 44.567513 70.068962 91.197754 51.079342 60.319111 22.101971 54.734005 27.229481 inf 131.229065 107.655632 165.560791 70.755165 152.638504 129.401001 59.328468 55.671234 65.647652 107.923653 125.166504 355117728.000000 81.330833 31.201536 inf 55.576069 57.799110 74.740227 38.092560 60.656715 94.580360 118.765297 67.069626 225.581955 57.696541 107.123558 66.317184 26.802967 84.943176 31.291626 74.912445 52.270096 64.604073 25.905975 62.764481 85.953735 inf 68.410309 68.195068 102.886078 61.459358 76.997040 50.211582 154.819046 70.793686 67.803963 29.290091 32.807266 66.317184 inf 67.417313 38.047981 inf 33.866665 69.432999 67.208267 48.453056 40.237625 93.559715 71.533554 68.446320 41.390198 63.686581 63.811581 193.523804 61.634125 52.523426 35.205196 70.832245 77.225655 71.337357 54.550335 68.772079 72.369507 113.282227 53.342083 72.571426 60.375114 56.151985 45.888496 52.908054 54.826305 38.317032 44.143925 76.997040 58.161003 56.888889 77.179825 
Conv_93_param_0 381.932465 530.537476 370.507111 582.195862 580.895569 397.700317 494.949585 581.544983 627.493347 644.599731 410.894165 681.771973 492.606049 447.284607 561.459229 862.673279 243.763824 687.629883 402.003082 809.007751 398.614563 668.627258 591.127258 125.650238 553.985107 686.722107 651.461487 660.142151 708.226013 595.867126 470.336334 515.552002 231.608185 534.352356 347.954529 530.537476 472.901825 301.211334 459.939880 420.187408 472.043549 730.606750 210.604050 564.812134 308.902618 327.370667 423.954346 537.388428 491.210571 431.336639 666.058899 427.087036 509.243256 316.418488 364.280121 286.134216 358.753113 399.840118 381.652252 327.989899 355.808472 378.872528 204.477982 255.497055 217.289886 317.190247 352.433594 321.901001 301.735504 334.313629 376.405212 421.208099 243.535583 335.824402 255.246323 427.789459 213.368332 342.682465 186.448746 204.317368 367.367218 411.870148 305.097961 410.569855 252.765793 310.192017 184.465256 387.913483 367.626862 204.961380 274.942932 369.717133 182.780045 305.815399 291.260925 252.765793 279.522827 338.006500 428.494232 306.175385 286.607178 350.297638 221.358292 190.826126 241.949768 270.651398 337.130280 419.509674 191.952774 377.224091 398.920258 247.239548 218.201340 223.258362 191.811203 327.164795 
Conv_103_param_0 679.989563 907.047974 419.848267 933.917419 573.214355 547.570557 488.443207 inf 315.267883 484.350098 602.422668 477.240356 431.694611 555.167542 1166.349731 735.773682 729.070801 inf 768.378113 314.315399 374.778107 783.421692 452.340881 714.059021 591.799744 1385.331543 501.148376 725.006287 464.457153 629.772400 988.018982 701.067383 1407.826782 577.991089 391.710846 1121.707764 767.244812 465.704559 651.869690 404.503876 588.452515 372.630371 365.560089 1137.653320 716.024780 589.786865 732.664795 488.902252 366.074585 678.216431 480.768951 632.068054 339.994781 399.533020 735.253723 607.346191 571.325623 715.532349 686.269104 710.644836 652.687561 425.340973 451.947876 396.790222 inf 540.178589 600.336975 329.861755 576.070862 634.767517 1112.115479 617.072388 678.216431 791.166565 386.185608 633.222168 374.508270 805.250793 417.489563 528.381897 684.013123 809.007751 420.187408 268.278503 861.958557 855.578918 618.172302 610.912537 368.407928 1067.060547 474.195068 694.515381 412.523407 898.431763 721.486816 374.238861 1229.768311 inf 272.066956 554.280212 570.073425 619.645020 292.406982 691.744690 516.063477 1063.243774 978.724365 394.084839 414.165619 731.634338 261.009521 628.630798 287.240204 745.794983 944.944580 252.765793 
Conv_106_param_0 70.296219 41.102402 87.163536 74.568810 59.220402 157.347855 74.398170 inf 35.766777 106.596718 51.483768 63.068867 124.567047 53.342083 69.843178 57.645390 64.636185 inf 91.647636 46.645622 84.998695 38.936527 131.627533 89.441544 99.730064 42.141285 68.626915 74.270706 74.440758 72.008858 55.433929 66.828369 28.544336 80.326126 56.493484 33.260357 93.965317 89.998619 105.046852 93.157593 55.386711 112.693237 161.952682 65.219658 37.782684 34.550480 62.164436 83.204094 111.917381 86.930481 61.575756 148.371933 121.313431 69.248138 89.874222 60.543762 97.195816 71.969009 32.757683 43.935135 104.205132 84.887726 48.927013 130.439316 213070640.000000 49.598778 57.492485 115.086723 60.263206 56.542610 41.442959 117.797104 51.483768 61.112782 80.177559 48.237389 104.372391 107.655632 73.101746 71.376511 38.612827 82.152878 52.693680 59.545788 52.693680 50.562984 109.837837 84.556564 117.054909 33.465775 72.856026 64.252968 119.419655 44.445660 164.826355 85.953735 28.619719 266338304.000000 61.986652 66.148521 41.896908 104.708534 96.761902 53.605934 116.530464 34.115425 76.274490 95.413063 58.951950 54.642017 52.144348 54.322472 89.626465 116.322006 38.589912 60.883896 
Conv_108_param_0 804.627991 394.084839 449.215881 482.105652 707.744202 418.160767 1088.267822 679.545410 631.300964 399.226410 702.013489 892.267578 928.914307 692.665771 735.253723 550.759155 700.595276 812.799988 560.551697 1001.332031 388.492920 708.226013 306.175385 533.256775 344.726318 470.336334 640.236328 642.609009 506.023346 438.980591 641.025269 278.773834 635.931519 359.248627 284.880615 407.673981 520.712708 441.214600 389.365265 626.360046 802.146484 839.019348 443.849823 469.487366 415.488831 513.769897 246.070007 416.820526 529.727112 291.424103 593.487732 559.948303 883.928650 495.420959 372.897491 420.187408 440.094757 504.062012 397.093140 517.861633 394.383636 524.387085 421.549438 330.490479 306.897949 380.814056 446.133789 532.983582 361.746857 342.231567 394.383636 412.523407 435.307098 322.900055 532.438049 487.984985 610.912537 499.704132 653.097290 494.479095 448.055115 403.249603 397.396484 460.346893 385.899109 540.459229 562.978333 435.671692 564.812134 508.745239 311.865723 349.826508 342.908386 322.699738 338.226257 367.626862 344.726318 244.221603 421.891327 433.132385 350.770050 466.121857 389.656921 606.284363 464.457153 410.246063 506.516052 331.966827 464.042816 661.401123 618.172302 347.721924 347.026031 445.369873 330.490479 441.964325 
Conv_118_param_0 595.526062 457.110718 628.251221 770.084412 563.893738 371.035675 468.219635 399.226410 760.514648 229.766785 374.238861 655.153625 382.775574 654.329590 524.916260 654.741333 637.881042 713.080200 277.583771 344.954895 830.977661 603.121155 563.588318 358.505859 418.834137 525.446472 521.234497 1034.178955 448.055115 512.252075 524.916260 805.874512 421.891327 508.745239 508.994141 340.439789 398.920258 589.118896 512.252075 402.625397 800.295410 338.226257 695.909058 390.827942 443.471436 728.050415 662.243164 478.557495 896.110229 558.145935 386.472504 855.578918 407.035980 694.052063 490.747162 444.228851 434.943146 894.569214 586.131836 574.480408 710.644836 673.387695 414.165619 556.355103 719.988953 588.452515 645.800110 766.114868 380.814056 285.192993 1483.084839 569.761230 438.240936 453.919708 330.700562 383.905548 601.378052 300.168488 650.646667 320.512634 297.592682 357.029510 449.215881 553.395752 407.993713 958.879272 448.441376 293.562073 inf 359.745514 662.664978 254.000000 379.702179 742.601013 inf 655.979797 592.136597 629.391418 449.604156 653.918274 390.534546 inf 508.745239 479.439636 495.893219 386.185608 468.219635 455.509644 423.954346 599.299561 520.973450 319.528259 471.188416 292.736084 283.947601 inf 
Conv_121_param_0 57.088673 68.917862 52.186195 97.560387 87.280540 126.752434 60.826942 70.334236 54.504612 68.302521 59.328468 79.784050 68.052330 67.487289 49.260605 42.360912 101.047394 61.285580 62.403072 33.414185 43.552578 31.595724 71.572922 98.297806 98.223564 77.826454 93.291245 34.115425 103.706535 82.308861 43.875843 68.338409 101.679436 85.054283 76.498825 68.808464 70.486717 112.498268 84.611580 83.578407 112.693237 67.945663 39.408485 70.948174 72.329254 116.634979 65.121681 72.168701 26.240517 55.528606 65.980721 48.165924 68.590714 63.376217 46.050991 61.401321 63.811581 34.386040 78.484009 65.980721 105.558441 52.438709 79.686272 52.481033 52.102566 58.161003 62.164436 57.138840 73.225227 61.055401 23.074520 108.644943 64.700500 68.123627 103.294678 113.380997 140.516479 78.864769 35.205196 62.283524 78.769234 75.259262 73.974968 56.006889 87.751686 32.430923 64.284729 82.675140 inf 101.047394 69.321960 64.157867 84.227982 69.137695 inf 51.483768 103.294678 42.638687 30.243721 35.865417 64.189537 inf 65.024002 67.000519 62.583252 112.013779 99.273285 73.681587 85.054283 72.774483 55.862541 74.568810 114.478874 35.129120 73.890907 inf 
Conv_123_param_0 862.673279 617.438599 618.539856 680.434265 591.463318 705.345093 742.601013 872.805359 818.555481 839.696533 912.617554 767.244812 908.632324 728.560242 669.057251 410.894165 859.111450 832.973572 517.089478 481.213684 708.226013 812.799988 566.966736 727.541260 565.426086 775.826965 639.449280 426.736664 446.133789 650.646667 410.246063 304.740479 653.097290 432.053162 525.977783 368.407928 348.187408 513.769897 611.271423 462.392883 510.242279 583.501953 517.089478 321.901001 485.706818 588.452515 412.523407 670.350525 517.089478 337.787018 465.704559 498.745911 630.918152 633.607788 769.514771 824.393005 695.909058 353.151398 462.804260 351.243744 486.160736 390.827942 460.754639 345.642517 464.872192 451.163910 411.870148 323.301422 411.870148 437.503784 472.043549 349.826508 419.171631 402.313995 327.576813 506.023346 416.820526 391.416107 543.849426 548.436462 464.457153 477.678619 422.920319 447.669525 682.218994 442.716583 491.674866 256.884949 360.243774 460.346893 486.615540 300.168488 430.266327 624.480164 366.332397 542.149048 507.009735 339.994781 559.948303 431.694611 440.094757 456.308777 400.147705 444.988892 484.350098 494.949585 404.818665 461.572327 477.678619 446.516724 645.800110 346.102448 309.822510 370.771210 248.420242 526.243774 
Conv_133_param_0 459.127991 416.820526 497.315491 423.264435 877.961182 357.274719 311.119629 658.887878 317.383759 786.382446 677.333313 319.528259 351.481079 509.992157 499.704132 208.912445 inf 339.994781 524.122925 390.534546 345.642517 503.574066 287.240204 292.900909 716.024780 858.402649 452.340881 354.113007 408.313965 404.818665 414.826141 359.496887 530.808167 363.516418 630.918152 502.115845 450.772949 848.600342 476.366302 418.834137 608.767700 460.346893 327.576813 593.487732 729.582031 395.884308 inf 519.672302 302.261475 736.815857 454.316162 356.295898 211.977173 258.544739 288.514709 615.611816 556.355103 601.030640 586.131836 455.509644 631.300964 535.728088 445.751495 581.544983 560.551697 445.369873 540.178589 490.747162 564.505676 467.378265 853.473328 251.543518 445.369873 468.219635 1151.504150 448.441376 613.795898 367.886841 330.071075 208.076797 450.772949 405.449738 625.983154 441.964325 379.425232 307.260498 604.171875 238.401474 316.611084 360.993744 489.362183 378.872528 512.000000 499.704132 516.575989 275.817596 600.683594 636.709900 365.303375 518.119507 390.241547 651.869690 435.307098 741.014221 903.895752 466.958710 154.359650 482.105652 255.622604 455.111115 521.234497 585.142883 559.045654 370.507111 733.698181 441.589142 
Conv_136_param_0 67.803963 65.089088 85.389366 44.113976 57.747780 54.965343 89.936378 34.846729 120.081253 48.561615 73.639862 117.160362 49.980015 96.403259 92.036804 71.454948 2130706432.000000 73.932915 103.376785 52.951141 111.057213 61.401321 89.812157 77.179825 50.406200 59.005444 91.841805 87.692513 139.461655 43.090790 115.393082 61.343395 61.927620 69.100960 56.249134 68.990982 88.769966 48.130276 60.656715 84.887726 91.133850 73.431961 105.302025 50.406200 105.558441 57.492485 28793330.000000 52.481033 58.057144 32.642570 74.912445 86.698669 52.186195 66.588837 77.271538 124.328873 63.191448 67.874741 68.052330 79.491440 39.794369 74.869316 51.524563 70.678261 43.234043 40.844219 130.767227 71.298248 125.893517 39.218334 67.839333 48.094673 80.029541 92.101982 40.287483 80.925949 62.885880 55.011845 120.303421 58.005352 151.042969 61.285580 59.709827 47.811764 63.874264 59.382648 55.198643 81.483711 56.690498 47.601757 47.462772 64.380196 87.280540 236.666061 103.376785 67.382385 60.713352 32.544544 62.764481 82.833122 71.969009 40.113510 31.858892 79.540062 31.534433 70.639870 66.725502 103.872208 47.566936 99.730064 51.240345 50.681217 46.247509 66.351021 56.641113 58.109024 
Conv_138_param_0 559.948303 414.495605 860.532654 433.132385 630.535767 896.110229 410.569855 560.551697 968.700195 535.452393 842.416199 720.487549 542.714661 373.164978 465.288025 770.654785 841.054138 699.653015 796.618713 740.486816 794.186279 342.908386 792.371643 618.539856 640.236328 846.528870 744.194580 521.495728 698.713257 845.840637 612.350769 605.578552 489.362183 571.953796 829.652283 508.248169 547.282471 670.350525 620.754150 637.099792 505.531586 357.766174 651.053833 495.893219 881.681335 424.646545 575.433655 457.512756 450.382690 877.961182 578.634033 734.215942 589.118896 370.243408 230.173447 575.752075 383.905548 571.325623 328.404053 392.597748 345.642517 433.854889 368.669037 419.509674 374.778107 408.634735 611.630798 215.489639 343.587860 467.798553 208.410263 440.840668 353.151398 386.185608 565.733521 460.754639 381.372437 286.449341 653.507507 457.915497 641.025269 369.192322 540.178589 416.153595 407.035980 409.277740 459.533569 481.213684 533.530273 304.028046 396.790222 639.449280 423.954346 321.701904 450.772949 474.627747 429.910736 375.318909 424.993469 463.629242 461.982239 515.296692 573.530334 300.168488 479.439636 518.119507 291.587433 827.014282 364.791016 452.734558 567.585388 436.036896 318.160248 579.278381 470.761993 414.165619 
Conv_148_param_0 520.712708 428.494232 227.754822 355.808472 436.036896 711.130554 420.867310 368.930511 407.354736 230.786163 293.065918 327.989899 402.003082 571.639587 210.433655 573.530334 352.194977 389.949036 531.350342 572.898682 576.709534 299.304962 331.755096 360.993744 641.420471 292.571442 304.919098 649.833862 269.949158 641.816162 657.223022 441.214600 621.867310 505.040771 579.601135 482.105652 inf 364.535400 614.520996 220.420334 579.601135 669.057251 370.507111 573.530334 578.634033 396.185822 595.867126 561.156433 423.954346 325.323334 384.473022 499.704132 650.646667 609.480957 inf 455.908844 672.517151 410.246063 666.485596 inf 588.119812 473.763214 581.544983 1150.867310 393.786530 265.404083 722.488892 702.962158 755.543945 502.600952 256.631470 505.040771 387.624451 334.528625 245.142319 409.277740 292.406982 253.504868 452.340881 541.302795 732.664795 420.867310 346.102448 596.550476 288.514709 547.858887 1334.681152 inf 385.899109 498.268188 674.697815 597.578430 inf 605.226318 424.993469 588.785522 663.087341 569.449341 481.213684 469.911469 486.160736 367.626862 370.771210 439.722748 771.226074 374.508270 406.082733 438.240936 541.021301 453.523987 235.168167 280.426941 487.984985 261.009521 440.840668 353.872101 
Conv_151_param_0 68.446320 104.038399 55.576069 193.379929 55.339573 76.634064 64.571999 60.319111 54.965343 106.859489 76.007011 65.880447 83.257362 32.302036 45.888496 87.339157 99.349121 106.509422 71.969009 50.406200 51.811951 75.521484 105.902283 54.550335 112.498268 40.437813 70.563210 44.628689 113.085220 69.358932 60.487442 51.894653 40.690865 83.044701 59.764706 57.441696 inf 48.597908 111.917381 60.713352 52.523426 50.999214 66.622948 64.126236 147.113129 45.155556 95.623528 72.409798 36.987484 74.440758 65.482376 64.063057 57.543362 65.813766 125335672.000000 102.561516 57.850533 89.013008 38.704762 inf 51.811951 54.096504 112.595673 25.360374 63.500000 83.956100 25.439749 49.903301 90.562675 52.270096 126.260193 66.215889 87.046852 50.328175 78.578850 47.290180 66.657097 57.747780 45.791550 67.803963 98.446632 47.636631 43.262806 74.440758 71.730835 40.818581 23.356321 inf 201.312698 105.472832 91.454292 37.263039 inf 46.612186 80.674934 36.819931 49.980015 63.068867 45.439552 50.720749 42.948483 53.827816 46.645622 59.819687 34.753609 70.639870 63.500000 79.980316 79.588737 72.611946 92.429283 102.886078 133.314194 101.283485 77.548004 66.657097 
Conv_153_param_0 789.365723 702.962158 1318.610840 835.649780 594.845032 389.074036 760.514648 715.040527 1001.332031 950.122375 502.600952 847.218262 482.552887 668.197815 781.655884 826.357422 459.533569 503.087036 784.012085 382.775574 443.849823 762.186096 438.610443 611.630798 399.840118 478.557495 1160.495239 986.145996 441.589142 729.582031 933.917419 737.861023 520.712708 666.485596 562.978333 828.991211 531.079102 641.420471 673.823853 562.369751 875.744080 915.025513 540.740112 487.071167 400.147705 525.977783 878.702698 646.201233 747.402283 578.956055 639.449280 622.611633 699.182800 417.824890 596.208618 659.723511 468.641449 582.848206 277.140106 591.799744 507.504395 372.363647 394.383636 342.456879 595.526062 398.309357 585.472168 720.986816 576.390015 690.367615 441.214600 644.599731 476.802948 329.861755 508.745239 781.655884 416.486786 313.180023 672.952148 273.785278 592.136597 595.185364 512.252075 709.191528 505.040771 435.671692 938.128052 533.804016 548.436462 295.228149 345.413025 557.846619 239.058823 438.610443 893.800659 315.459076 437.872040 669.487793 407.354736 506.023346 283.947601 377.224091 387.335815 474.195068 291.260925 538.501038 483.000916 560.853882 488.443207 428.141571 378.596802 546.707275 384.757385 438.980591 369.980072 601.378052 
Conv_163_param_0 439.351349 536.004150 587.455688 419.171631 inf 153.177856 298.617676 327.576813 758.297363 569.137878 1005.201904 444.608551 829.652283 643.802002 357.520264 401.692657 368.669037 291.097931 256.884949 542.714661 1107.970215 430.266327 297.592682 483.000916 654.329590 437.503784 491.210571 603.821228 461.163116 815.987427 763.864929 386.185608 538.222473 491.210571 461.163116 588.119812 450.382690 716.517883 325.730743 517.089478 482.105652 553.690247 717.011719 708.226013 468.641449 205.935074 inf 522.281128 151.042969 274.362854 378.872528 364.791016 259.059753 597.578430 432.053162 493.540802 346.102448 479.439636 330.700562 626.360046 340.885986 469.064026 297.933563 573.214355 505.531586 inf 324.714111 492.140015 364.791016 470.336334 615.976318 544.989014 302.437195 372.897491 458.318939 468.641449 575.752075 504.062012 324.714111 458.318939 369.717133 815.987427 246.070007 328.819214 663.087341 328.611511 354.837646 686.722107 320.710236 582.848206 inf 192.094528 568.515869 645.800110 474.195068 331.332489 473.763214 684.463135 702.013489 229.766785 356.052032 484.350098 378.321442 556.355103 455.908844 475.930481 494.009491 377.497833 542.997925 602.771729 571.639587 434.943146 465.288025 370.771210 436.402679 605.578552 
Conv_166_param_0 32.757683 124.926033 42.086731 176.216797 inf 73.390518 70.106735 62.523075 32.190098 70.678261 36.144524 54.277130 23.239456 27.811806 56.542610 73.848953 43.090790 92.825127 61.227871 56.493484 40.972904 88.048744 41.522350 110.867859 41.762363 57.088673 148.966782 48.561615 67.277809 31.231508 144.900284 83.417572 73.932915 38.159626 54.413387 78.436668 63.438049 30.271881 58.005352 58.792042 71.025665 80.475250 50.959248 124.447845 49.826820 44.720772 inf 96.047264 105.902283 112.401039 46.512161 36.064339 41.128399 71.376511 65.647652 50.919342 92.167259 58.580181 85.333336 87.456627 58.685921 86.010582 50.095531 150.955307 82.885918 inf 47.153011 134.277756 115.804092 77.501785 59.166515 35.964603 63.811581 69.843178 144.497772 127.435570 51.729515 114.579735 137.762711 31.201536 180.121887 36.695259 97.050743 77.548004 32.366352 79.394386 75.433876 73.019653 50.018463 65.747223 inf 89.936378 35.512833 102.967537 38.159626 71.181168 129.079895 68.482361 39.843136 50.172840 87.163536 101.758995 87.929680 50.289249 58.580181 37.607864 58.527454 60.883896 97.414230 64.380196 69.507217 40.187885 63.130096 78.769234 123.385201 109.930687 
Conv_168_param_0 896.110229 263.388367 401.382721 701.540100 594.505127 674.260559 281.794159 401.692657 170.666672 726.525146 709.675293 672.952148 819.200012 499.224579 484.350098 434.217041 599.299561 595.867126 751.179810 631.300964 754.995667 702.013489 449.215881 663.933655 474.627747 430.266327 233.689133 597.921814 600.336975 621.124756 393.786530 557.846619 387.624451 577.670166 353.391296 719.988953 502.600952 237.965240 655.566467 658.470886 1122.312866 809.007751 1103.270386 462.804260 885.433167 535.728088 680.434265 342.908386 581.870239 753.355530 362.250702 463.216370 956.235291 680.434265 768.378113 675.135620 475.061188 540.178589 788.767273 455.509644 450.382690 323.301422 374.508270 568.205322 461.163116 521.757263 298.960907 551.927856 484.350098 465.288025 535.728088 535.176941 405.449738 528.381897 427.087036 271.640717 319.136200 572.583374 622.611633 489.362183 321.503082 216.026581 348.888000 565.733521 658.054382 363.262573 550.176636 550.759155 459.533569 453.128906 232.852280 537.388428 404.818665 617.438599 498.745911 552.514099 474.627747 494.949585 634.380493 413.178711 374.238861 336.476074 464.872192 409.277740 323.703796 456.709381 530.808167 336.693848 474.195068 643.403809 416.153595 419.848267 524.387085 568.826660 642.609009 565.733521 
Conv_178_param_0 419.509674 691.744690 461.163116 593.487732 405.765991 209.754837 213.018845 341.781860 445.751495 399.226410 568.205322 332.391052 552.220825 inf 401.692657 787.573059 561.459229 inf 493.072998 322.299866 455.111115 753.355530 483.000916 378.872528 477.678619 inf 480.768951 292.078613 684.463135 581.220093 454.713287 311.305817 455.908844 193.956741 666.058899 493.072998 362.755920 inf 651.461487 716.024780 542.431702 316.418488 462.392883 500.184601 394.982544 464.872192 634.380493 786.382446 inf 479.881927 431.694611 483.449829 411.870148 569.137878 358.753113 566.657959 inf 653.097290 377.224091 577.029419 602.771729 509.243256 408.955963 494.949585 643.802002 340.217133 415.488831 581.220093 239.719818 379.702179 503.087036 402.003082 645.800110 548.147522 402.625397 464.042816 519.932007 545.560547 303.495911 905.469116 242.400742 393.786530 659.305420 640.630554 413.836121 542.149048 797.840515 604.522949 438.240936 485.253723 438.240936 666.485596 428.141571 582.848206 497.791382 400.764252 504.062012 354.595764 518.894775 615.976318 507.009735 476.366302 591.463318 594.845032 495.893219 369.192322 inf 527.310669 300.862915 547.570557 506.516052 322.900055 394.682861 698.713257 269.809143 1021.486511 
Conv_181_param_0 55.339573 32.906883 73.473450 53.298359 73.556564 53.561779 96.546402 48.309063 71.415703 60.263206 108.463722 82.675140 61.112782 inf 29.080502 34.679466 94.033264 inf 56.839161 60.543762 167.695679 50.250385 70.832245 125.407906 45.727146 inf 102.319435 66.114899 74.783211 45.249825 73.723358 72.937744 52.736416 67.768631 108.463722 77.826454 73.142860 inf 88.709412 41.842987 35.319935 45.471329 58.738934 58.792042 87.751686 28.594547 36.064339 79.104622 inf 47.050652 74.398170 115.907310 56.641113 37.499424 60.040627 52.102566 inf 35.845646 41.442959 61.343395 32.366352 92.036804 99.883255 59.005444 77.317482 61.285580 36.757488 64.412086 85.445465 115.495560 90.942657 131.096771 78.531403 75.346466 98.297806 83.257362 109.560234 93.897476 59.112728 34.440678 86.124504 95.905602 38.843487 65.121681 52.994293 87.339157 113.777779 91.712273 79.637474 66.215889 54.872574 55.198643 42.086731 148.881516 74.313141 54.504612 38.182034 92.758919 67.981178 109.745148 99.653641 116.739677 109.930687 67.592514 54.186668 56.690498 inf 98.745636 129.143997 98.149437 101.918495 75.741409 86.353256 84.832352 78.626358 35.924862 
Conv_183_param_0 428.494232 683.114929 561.762390 475.495422 439.351349 648.214355 662.664978 542.431702 816.627930 392.597748 620.014282 396.185822 385.613037 445.751495 394.982544 347.489655 488.902252 440.467407 498.745911 474.195068 481.659271 485.706818 582.195862 378.046509 1010.081543 327.989899 416.486786 508.248169 626.737366 345.872345 388.783264 426.736664 364.791016 511.245209 793.580444 279.974152 444.228851 693.589355 612.711426 644.599731 314.886200 419.848267 564.199585 519.412903 445.369873 478.998169 560.853882 379.425232 518.119507 663.510193 517.604004 697.308289 727.032837 400.764252 289.800568 357.766174 580.571411 339.994781 534.626953 417.824890 536.557007 638.272400 628.630798 650.646667 609.124146 341.333344 617.438599 498.745911 726.018127 360.243774 562.673889 377.771973 366.849091 539.338501 501.631622 478.117645 562.673889 393.488647 335.607727 482.552887 509.992157 581.544983 547.282471 622.611633 459.533569 682.666687 579.924194 553.395752 641.420471 461.982239 675.135620 580.895569 501.148376 418.834137 585.801819 469.911469 847.908691 647.407593 762.744873 687.175720 249.134094 545.560547 534.078003 362.250702 830.977661 501.631622 349.122162 684.013123 521.234497 371.565704 546.420166 552.514099 551.635193 487.527649 379.702179 702.962158 
Conv_192_param_0 383.339722 282.559479 242.626862 330.280640 271.924713 179.252930 279.372711 263.121887 288.835083 333.029449 272.780273 303.850464 243.535583 235.380997 219.490295 213.894730 409.922760 214.070786 279.072968 335.824402 229.159470 233.899277 352.672546 241.949768 475.495422 218.568069 310.747894 251.787033 265.133545 229.563995 421.208099 200.536621 369.454559 258.802002 184.334518 245.605286 250.574188 291.097931 322.100311 317.577545 341.333344 215.489639 277.140106 190.407028 269.669250 267.450897 346.102448 283.328979 434.217041 278.326385 316.034027 307.260498 268.002075 227.555557 310.933655 217.108521 459.533569 238.183151 327.576813 243.763824 286.765167 219.120468 238.401474 260.617249 448.441376 193.092804 316.996948 200.691360 286.765167 322.299866 504.550934 229.159470 297.592682 176.695648 263.388367 251.543518 278.624542 208.577393 250.333008 169.003250 387.913483 233.899277 260.356354 298.104309 233.060928 236.450912 240.384476 319.332092 264.056854 181.885315 300.515320 175.148819 245.605286 241.724915 256.884949 175.740540 481.659271 196.744324 230.991119 282.252838 274.942932 408.313965 311.492218 153.539551 326.139191 226.367279 241.052826 182.651688 270.510651 222.684937 323.301422 182.523514 341.781860 326.343781 275.233856 231.402130 330.071075 240.162506 180.371704 211.288376 326.753754 221.546844 218.751892 168.129288 250.333008 182.651688 295.731659 193.379929 351.956696 150.431458 285.976898 198.850159 385.327393 376.133057 259.318054 333.456421 351.006744 201.468628 273.785278 278.624542 293.231110 342.231567 278.923309 280.578217 306.897949 225.386475 201.937881 224.414154 315.076935 334.313629 196.003021 279.974152 271.924713 238.183151 333.029449 199.460129 272.066956 238.839310 334.528625 206.261703 472.901825 329.027191 240.829636 269.809143 206.589355 188.202606 367.886841 249.612289 369.192322 309.453888 251.300476 224.607941 339.108215 297.422516 214.070786 166.621399 431.336639 336.476074 287.398895 176.336273 209.417068 198.243896 338.887299 233.269958 262.855988 216.386017 268.555511 243.307770 301.560577 139.237686 304.919098 225.581955 431.336639 213.193436 345.413025 187.524155 291.587433 365.560089 310.747894 419.509674 326.548645 273.785278 262.325775 201.468628 260.878632 255.622604 263.388367 247.946609 445.751495 257.393372 240.162506 229.969940 284.724670 307.442078 273.353638 241.949768 209.417068 179.376556 270.089294 186.048645 304.205841 230.581558 296.068298 221.924911 470.761993 222.304276 235.594208 206.098251 494.479095 245.142319 334.743896 279.974152 
Conv_194_param_0 260.096008 408.634735 474.195068 563.283142 607.700928 679.101807 279.072968 194.391632 495.420959 414.495605 530.808167 361.244446 333.029449 410.894165 679.101807 799.680237 288.835083 546.707275 192.521103 225.777771 489.362183 450.382690 275.379578 605.931274 352.672546 547.282471 559.948303 597.921814 382.494110 799.066040 660.561279 985.212097 668.197815 577.349609 850.681946 455.509644 907.839417 571.325623 581.220093 653.918274 680.434265 488.443207 782.243591 1000.369202 571.639587 734.215942 694.515381 656.393677 551.927856 925.608521 776.405945 768.378113 1007.148132 1028.047485 648.618469 603.121155 1328.715210 538.779907 653.918274 512.504456 690.367615 674.697815 544.989014 610.195923 423.609131 840.374817 584.157227 323.301422 719.491028 653.507507 694.979309 618.172302 548.147522 412.523407 680.434265 584.157227 442.716583 724.501404 655.153625 673.387695 728.050415 679.545410 541.302795 599.299561 685.364929 509.243256 883.178284 497.791382 707.263062 690.367615 490.747162 601.378052 663.510193 750.096619 711.130554 825.046814 794.186279 518.119507 925.608521 459.127991 984.280029 691.744690 521.234497 589.452698 750.096619 342.908386 877.220886 321.503082 462.804260 797.840515 461.982239 813.435486 617.072388 641.816162 633.222168 543.565308 412.850800 487.071167 614.520996 335.175262 670.350525 430.979279 561.762390 448.055115 501.631622 620.754150 613.072510 528.650391 615.611816 581.544983 707.263062 513.769897 781.069092 618.172302 645.800110 622.984436 468.219635 784.012085 590.791626 785.788513 610.912537 522.543457 615.247803 378.596802 639.842529 493.072998 500.184601 438.240936 615.611816 620.754150 571.639587 399.226410 332.603577 552.514099 783.421692 573.846680 533.256775 479.881927 688.084656 431.694611 618.172302 583.829407 637.490173 474.627747 406.082733 706.302795 535.176941 479.439636 646.602844 651.053833 506.516052 580.247620 624.855286 465.288025 663.510193 431.336639 421.891327 771.798218 503.087036 527.578064 596.208618 611.630798 465.288025 581.870239 422.233765 492.606049 438.240936 502.600952 635.543091 463.629242 677.333313 492.140015 533.530273 630.153870 260.226105 694.979309 549.305176 736.294434 471.615601 672.517151 587.787598 664.782104 544.418640 694.515381 599.990784 576.390015 667.340576 707.744202 531.350342 735.773682 805.250793 563.893738 508.000000 299.822479 507.009735 459.939880 381.652252 634.380493 385.042206 405.449738 362.755920 634.767517 724.501404 629.010864 444.228851 556.652771 614.158203 481.659271 487.527649 490.747162 494.949585 433.132385 
Conv_197_param_0 inf 412.523407 679.989563 567.585388 inf 453.128906 449.993073 inf 438.240936 751.179810 inf inf inf 594.165649 432.772034 485.253723 428.141571 430.622528 457.512756 702.962158 749.556213 498.268188 310.377075 524.916260 647.407593 587.124146 458.318939 inf inf 503.087036 656.808105 469.064026 inf 583.829407 471.188416 470.761993 346.332886 691.744690 492.606049 408.955963 590.121399 562.369751 451.947876 424.300171 407.993713 521.495728 591.127258 289.639191 465.704559 418.497192 528.650391 401.382721 419.848267 465.288025 inf 395.282684 607.700928 562.065918 485.253723 594.845032 324.309235 inf 518.636108 706.782593 598.265686 315.076935 599.644958 inf 563.588318 inf 641.025269 453.919708 491.674866 478.557495 529.457520 inf 454.316162 354.354218 inf 505.040771 inf inf inf 506.023346 389.656921 639.842529 367.626862 inf 281.946869 460.754639 inf 543.849426 358.258942 inf 313.746674 373.432892 553.985107 inf 405.449738 534.901794 497.315491 564.505676 341.109497 inf 438.610443 inf 441.214600 inf 645.800110 485.706818 inf inf 342.908386 524.916260 538.501038 236.236145 553.101562 338.006500 531.893677 378.321442 422.233765 341.557465 387.624451 419.509674 343.814941 inf 495.893219 483.449829 414.165619 583.501953 482.552887 410.569855 588.119812 697.308289 550.759155 717.011719 406.717743 inf 363.262573 519.932007 560.551697 543.281433 529.996948 721.486816 321.304504 524.122925 inf inf 503.574066 442.340149 375.048309 479.439636 487.071167 632.452271 461.163116 635.543091 398.309357 inf 658.054382 466.539917 inf 657.638428 377.224091 435.307098 614.884155 414.495605 478.117645 528.381897 457.110718 322.900055 665.632751 533.804016 430.979279 671.648804 inf 858.402649 516.575989 477.240356 inf 112142440.000000 381.093048 425.340973 inf 321.901001 595.526062 378.321442 334.313629 560.853882 509.243256 697.308289 563.283142 inf 551.927856 476.802948 722.990967 389.365265 459.533569 460.754639 386.472504 510.492645 615.247803 413.178711 418.160767 677.333313 524.122925 373.164978 606.637878 484.801483 512.504456 inf 544.133911 447.284607 525.977783 503.574066 621.495789 inf 376.950714 561.459229 457.512756 474.627747 562.065918 461.572327 598.609924 473.332123 432.772034 451.555542 inf 570.698853 437.136139 inf 395.282684 727.032837 
Conv_200_param_0 inf 96.331848 72.088692 87.810936 inf 98.446632 72.815231 inf 105.988586 83.524727 inf inf 46319704.000000 84.282570 72.733780 64.894211 120.081253 77.042656 98.971077 107.923653 74.654419 72.571426 89.503098 74.826241 79.394386 76.185120 94.994888 inf inf 97.123230 117.160362 88.528252 inf 117.903900 93.291245 75.653290 89.626465 79.200974 105.216827 104.708534 104.038399 74.568810 84.282570 99.730064 79.980316 76.140518 70.410393 70.755165 114.984970 89.380066 91.583099 94.101303 98.745636 66.317184 inf 92.891426 94.237679 75.741409 70.793686 89.874222 78.013199 inf 85.054283 87.751686 91.583099 105.302025 92.825127 inf 77.271538 inf 85.389366 95.623528 96.403259 70.986900 74.355629 inf 90.311111 105.302025 inf 100.268311 62667836.000000 inf inf 74.017075 89.380066 108.013290 80.875626 inf 78.816971 79.394386 inf 105.558441 60.713352 inf 82.413177 103.459030 69.693459 1065353216.000000 94.101303 81.585945 95.553268 117.266006 80.925949 2130706432.000000 97.706985 inf 84.943176 inf 77.919716 100.423164 inf inf 80.326126 88.048744 79.540062 85.727097 83.097763 67.557404 63.562073 103.130852 80.775154 87.046852 89.688278 104.540192 63.314507 inf 62.045803 99.121948 86.353256 68.844894 79.637474 65.383614 95.483116 81.432686 98.521210 99.577339 70.601517 47349032.000000 67.945663 71.770416 79.540062 98.745636 88.227951 94.101303 104.372391 92.560852 inf inf 63.968521 120.303421 99.349121 95.483116 85.054283 104.708534 77.733414 107.300331 87.810936 inf 101.918495 69.805687 inf 73.349129 101.125969 88.952118 101.998428 135.820358 97.341316 94.718132 97.123230 73.431961 79.249237 79.297562 75.918274 100.500771 inf 82.780396 61.227871 88.168137 inf 6303865.000000 94.856308 86.468086 inf 81.026794 75.609299 90.185852 86.295952 78.769234 93.425285 59.436928 65.913834 inf 76.185120 83.417572 88.168137 106.509422 108.735786 69.027603 59.005444 80.177559 105.902283 57.289867 72.815231 97.195816 87.929680 79.637474 86.181580 95.623528 75.390144 inf 87.633423 102.723541 90.879105 114.984970 78.816971 inf 88.709412 94.925545 91.325844 101.679436 70.563210 92.429283 73.556564 64.252968 89.257378 93.024323 inf 55.623611 97.268509 inf 83.524727 106.075043 
Conv_202_param_0 570.073425 789.365723 789.965088 712.591797 521.234497 608.411682 790.565369 809.637329 525.977783 629.391418 799.066040 788.169678 702.487488 597.921814 828.331238 641.816162 477.678619 751.179810 706.302795 864.824585 767.811096 830.977661 691.285034 522.806030 455.509644 510.994110 930.576050 403.875763 608.056091 644.599731 724.501404 531.079102 794.792969 837.668274 933.917419 1048.245850 800.911499 810.267883 910.222229 761.628113 778.730530 773.519714 925.608521 1159.848389 766.679443 923.964478 885.433167 950.990845 1092.840332 962.427368 864.824585 1016.496338 1002.296753 786.382446 1020.484558 1180.242798 867.709778 1127.787476 861.245056 552.514099 806.499207 514.277832 752.810425 536.280396 470.336334 697.776001 852.773743 632.452271 775.826965 604.522949 436.769104 870.614197 645.399475 785.195496 664.782104 827.014282 817.911926 584.813965 643.802002 601.725830 636.709900 466.539917 775.248901 478.998169 611.271423 560.853882 609.838196 881.681335 724.501404 701.067383 830.314453 790.565369 625.983154 637.881042 646.602844 761.628113 709.675293 626.360046 996.536377 575.433655 669.918884 821.139709 721.987488 789.365723 994.630981 683.563721 455.908844 429.555725 579.924194 419.509674 433.493347 727.541260 987.081604 785.195496 514.532166 603.471008 790.565369 615.247803 476.802948 432.772034 754.448181 411.544312 581.220093 527.578064 489.362183 737.338074 521.495728 391.710846 388.202972 528.650391 538.779907 474.627747 499.704132 617.438599 483.000916 422.920319 568.205322 506.023346 665.632751 665.207153 477.678619 436.769104 508.745239 407.673981 709.191528 367.626862 487.527649 371.565704 347.721924 500.666016 388.202972 426.037689 396.185822 465.704559 464.872192 443.471436 573.530334 558.145935 399.840118 350.297638 667.340576 481.213684 534.352356 476.802948 377.771973 551.342896 316.226135 578.956055 460.346893 747.939636 708.708435 330.910950 365.560089 663.087341 745.260742 607.346191 641.420471 599.644958 439.351349 446.900330 654.741333 293.893799 310.747894 680.434265 310.747894 523.859009 265.404083 659.305420 459.533569 451.555542 421.891327 281.794159 413.178711 561.762390 490.747162 420.867310 404.503876 469.911469 543.281433 629.010864 620.754150 507.009735 614.884155 501.148376 418.497192 597.235352 416.153595 410.246063 442.340149 553.690247 681.325500 549.015320 323.502502 630.918152 759.959106 759.404358 704.389954 348.187408 271.782654 732.664795 652.278381 688.996033 697.776001 1003.263245 529.996948 246.536499 539.898315 503.574066 312.615387 571.325623 562.978333 655.979797 
Conv_212_param_0 531.893677 563.893738 735.773682 611.271423 663.087341 1021.486511 554.280212 515.807617 504.550934 667.340576 532.438049 577.670166 550.467712 396.487793 902.327820 317.771545 565.118958 498.268188 548.436462 559.346252 810.899475 814.071960 868.434082 495.420959 inf 469.911469 763.304504 inf 525.977783 671.215454 685.364929 369.454559 504.550934 436.769104 673.823853 1008.124023 643.006165 362.755920 inf 817.269470 599.299561 536.004150 inf 381.652252 358.012390 504.062012 579.278381 850.681946 674.260559 618.907776 514.786743 inf 437.872040 570.385986 712.104065 507.009735 774.095215 724.501404 633.607788 574.480408 535.452393 498.268188 608.411682 685.816772 760.514648 590.456299 763.864929 554.871460 449.604156 inf 828.991211 738.384644 608.056091 458.318939 1002.296753 643.403809 563.283142 398.309357 621.124756 293.396515 532.710693 926.432739 354.837646 574.480408 346.563629 362.250702 672.517151 451.947876 270.089294 654.329590 464.872192 734.734436 520.712708 542.149048 517.604004 846.528870 427.789459 573.214355 767.244812 778.148071 841.734619 604.522949 630.918152 380.257324 390.241547 796.618713 inf 335.607727 504.550934 528.919189 536.280396 598.265686 522.281128 492.140015 304.383850 487.071167 702.962158 527.845764 547.282471 947.526428 1065353216.000000 419.509674 1006.174072 442.340149 539.338501 441.589142 710.159729 353.631531 576.070862 847.908691 750.637817 579.278381 928.914307 431.336639 513.262939 966.899658 444.988892 1269.535034 532.983582 675.135620 572.268433 1016.000000 959.763855 713.569275 724.501404 511.496552 678.658813 386.472504 570.073425 732.664795 371.035675 1016.000000 560.551697 734.734436 586.131836 480.325012 inf 585.142883 648.214355 544.989014 647.005005 905.469116 914.221436 638.272400 702.013489 375.048309 621.124756 561.156433 540.459229 500.666016 636.320496 494.949585 477.240356 762.186096 305.277008 590.791626 603.821228 437.136139 805.874512 688.996033 364.535400 778.730530 563.588318 896.110229 573.214355 615.247803 815.347961 523.859009 702.962158 468.641449 470.336334 850.681946 509.992157 323.100616 643.802002 545.560547 869.159546 inf 529.457520 639.449280 422.920319 749.556213 563.283142 384.189056 478.998169 679.989563 493.072998 791.768616 629.010864 522.543457 800.295410 635.931519 531.079102 359.248627 596.208618 581.870239 640.236328 440.094757 537.666138 615.976318 421.549438 380.814056 587.124146 779.313843 369.192322 477.678619 594.505127 941.523987 583.829407 429.910736 565.426086 inf 
Conv_215_param_0 91.070030 113.877411 130.832993 116.322006 75.873978 47.566936 101.047394 94.237679 148.711258 104.624298 119.419655 100.036926 85.054283 115.393082 91.261757 79.056534 164.930878 53.080818 128.252472 112.110344 95.483116 69.432999 79.980316 57.799110 inf 119.639374 88.648941 inf 52.354267 88.648941 114.177345 129.015869 93.897476 119.859909 86.067505 51.119495 126.505836 91.454292 71023544.000000 111.629181 89.564735 101.362434 inf 122.110802 89.318680 76.007011 108.013290 58.845249 65.416496 147.530350 127.435570 inf 107.923653 100.812401 138.128525 92.626778 91.133850 112.986969 94.787170 122.455742 82.675140 101.047394 57.289867 117.477867 93.224373 125.287094 103.049126 85.614220 101.918495 inf 81.534798 71.494225 66.182190 163.685333 76.498825 96.474777 75.433876 69.805687 97.706985 153.539551 116.634979 50.720749 154.268097 50.445305 99.653641 94.033264 76.408928 112.790977 95.133873 107.211868 87.692513 96.546402 114.177345 114.579735 112.888885 38.025730 76.815125 45.218357 101.679436 113.977211 90.373871 106.947365 149.566422 99.806602 120.414818 91.776993 266338304.000000 49.523228 106.771759 87.929680 83.793816 106.859489 91.518646 90.185852 93.157593 125.046150 46.679111 78.342171 71.770416 45.124218 2040906.500000 66.657097 43.176628 119.749542 88.108398 72.693123 97.414230 134.416534 175.503372 60.883896 65.121681 48.670658 118.548767 153.448975 110.023689 65.947258 102.238991 25.988810 71.730835 136.820618 93.090912 46.478912 78.060020 93.492455 45.503151 109.652611 112.207077 95.343109 135.255325 78.436668 113.579041 43.523426 101.679436 136.676819 100.268311 122.455742 inf 55.058426 71.691292 83.739861 113.977211 103.955238 70.031235 118.118073 88.952118 131.894516 76.274490 125.528961 93.627068 133.109512 101.679436 78.247894 109.930687 70.832245 73.974968 144.337402 120.081253 186.181824 42.059509 95.693893 81.483711 79.784050 81.894203 100.500771 87.456627 86.410629 100.113937 91.390022 77.409523 140.668472 106.684166 37.391605 65.680809 53.385880 96.833954 97.560387 74.185966 inf 72.048752 87.989174 81.637161 130.178177 94.101303 67.417313 167.264313 104.288696 68.052330 92.626778 107.744820 102.319435 61.517502 76.185120 75.565369 71.929207 131.361618 85.783638 103.955238 59.382648 71.533554 169.003250 97.706985 49.223316 87.397850 57.289867 137.471466 95.133873 115.804092 78.578850 108.193008 83.257362 100.036926 133169152.000000 
Conv_217_param_0 646.201233 701.540100 923.144653 403.562439 896.882751 721.486816 735.773682 424.300171 771.226074 1069.253906 766.679443 753.355530 682.218994 644.599731 875.744080 753.355530 749.016541 453.919708 519.153687 726.525146 720.487549 947.526428 823.740295 527.578064 727.541260 558.445496 735.253723 974.142334 796.009155 928.085632 691.744690 426.386871 774.671631 1145.166748 858.402649 800.911499 872.073792 814.709473 953.605896 934.756531 805.250793 451.947876 828.331238 672.517151 516.832581 864.106323 360.243774 630.153870 773.519714 701.067383 649.428223 574.797791 1050.362427 739.434265 932.243713 461.982239 812.799988 629.010864 875.007568 605.226318 629.010864 653.918274 446.516724 789.965088 557.249084 417.824890 514.023743 615.611816 872.805359 646.602844 633.993896 859.111450 678.658813 671.215454 593.149353 907.839417 714.549438 422.920319 753.355530 616.706604 782.243591 594.505127 686.269104 641.816162 622.611633 722.990967 709.191528 819.845520 672.952148 718.993774 672.517151 802.765442 527.845764 645.800110 725.006287 598.265686 565.733521 782.243591 788.767273 566.657959 579.278381 710.159729 734.215942 744.727295 820.492126 763.864929 771.226074 570.073425 648.618469 854.875916 496.366425 865.544067 648.214355 359.496887 766.679443 627.115112 523.331970 649.428223 591.463318 223.642303 541.866638 495.420959 915.830994 493.072998 586.462219 526.243774 704.389954 721.987488 526.510132 439.722748 551.050842 692.204895 444.608551 523.859009 754.995667 363.262573 497.315491 659.305420 436.769104 479.439636 488.902252 751.179810 616.341248 576.070862 324.511536 460.754639 569.449341 338.887299 451.555542 442.716583 578.956055 502.115845 639.842529 391.710846 568.826660 446.900330 457.512756 610.912537 650.239990 538.222473 694.515381 505.040771 469.064026 478.998169 818.555481 531.893677 415.820953 435.307098 613.433960 789.365723 393.786530 394.383636 649.023071 345.642517 597.578430 469.911469 918.255981 470.336334 620.754150 603.121155 628.630798 672.952148 828.991211 490.747162 504.550934 532.165710 518.377686 459.533569 515.807617 537.388428 587.455688 448.055115 710.644836 385.327393 768.378113 498.745911 628.630798 464.872192 497.315491 469.911469 516.575989 416.153595 467.378265 476.366302 447.669525 630.535767 636.320496 692.204895 521.757263 732.149170 428.141571 599.299561 412.523407 561.156433 651.053833 373.701141 517.604004 390.534546 805.250793 823.740295 575.433655 923.144653 531.350342 559.647095 537.388428 526.510132 796.618713 355.808472 245.837433 590.791626 777.566528 453.523987 
Conv_227_param_0 508.496582 492.140015 613.795898 660.142151 inf 597.235352 463.216370 362.755920 467.378265 617.072388 529.727112 442.340149 683.114929 455.908844 683.563721 375.048309 253.258026 344.498016 556.950745 663.510193 482.552887 564.812134 495.893219 371.831299 556.057739 318.745087 585.472168 630.535767 466.539917 539.059082 460.346893 615.611816 406.082733 543.849426 inf 827.014282 719.988953 512.000000 577.029419 410.569855 492.606049 705.823608 621.495789 344.498016 566.966736 315.267883 442.716583 392.597748 475.061188 490.747162 620.014282 666.058899 501.148376 682.666687 537.944153 321.701904 766.114868 544.989014 532676608.000000 inf 466.121857 621.124756 inf inf 213070640.000000 659.305420 545.846802 636.709900 580.247620 663.510193 707.263062 486.615540 376.133057 617.805237 677.333313 718.993774 370.243408 473.763214 554.575684 603.121155 606.637878 556.950745 837.668274 497.315491 419.171631 175.266846 644.200623 542.431702 464.042816 352.433594 573.846680 586.793030 444.988892 587.787598 571.325623 448.055115 inf 421.208099 640.630554 413.178711 592.473816 655.979797 inf 521.234497 484.350098 542.149048 410.894165 564.199585 520.712708 566.966736 406.399994 736.815857 620.384033 540.178589 413.836121 541.866638 616.706604 397.093140 inf inf 566.657959 392.597748 616.341248 588.452515 620.014282 589.452698 408.955963 496.840485 573.530334 576.709534 701.540100 703.437439 684.913757 2130706432.000000 737.861023 688.996033 562.978333 559.647095 576.709534 inf 363.009064 491.674866 375.861267 625.230774 532.438049 392.006042 inf 462.804260 627.493347 489.362183 493.072998 381.932465 691.744690 651.461487 787.573059 695.443848 433.132385 545.274658 319.724640 387.047607 495.893219 577.670166 556.355103 487.984985 446.133789 441.589142 776.985840 476.802948 541.866638 550.467712 647.407593 440.840668 394.084839 541.021301 519.932007 463.216370 579.601135 651.869690 331.755096 638.272400 362.755920 778.148071 730.606750 348.420624 705.345093 575.752075 586.131836 688.084656 493.072998 579.601135 636.709900 508.745239 623.357727 566.349487 542.431702 inf 622.984436 806.499207 684.463135 517.089478 562.978333 461.572327 inf 524.122925 622.611633 525.181213 411.218964 578.634033 584.813965 609.124146 606.991821 inf 697.308289 inf 716.517883 411.218964 671.215454 573.846680 766.679443 inf 394.682861 556.950745 630.153870 513.769897 300.689026 487.984985 622.239258 302.613159 508.000000 580.571411 788.169678 513.262939 
Conv_230_param_0 44.264126 57.747780 132.229797 65.713997 inf 50.799999 84.282570 58.057144 47.187229 37.738827 98.372162 56.006889 45.727146 50.760342 44.024372 68.917862 87.456627 112.498268 110.397285 87.456627 74.270706 65.416496 71.969009 73.142860 47.393585 41.024605 54.006645 83.956100 20.841026 100.890610 93.157593 65.780472 40.387577 46.712643 inf 55.339573 78.816971 54.826305 71.103333 71.220154 116.010704 48.380951 106.684166 38.589912 58.527454 85.501640 69.880707 52.523426 87.810936 41.708786 59.600368 99.273285 68.159332 91.712273 66.418793 58.580181 93.559715 87.810936 13926186.000000 inf 77.271538 92.232628 inf inf 11273579.000000 85.896965 64.252968 108.283096 117.477867 80.775154 58.633003 77.640594 77.594269 143.620102 112.401039 103.955238 108.917923 58.527454 65.056526 90.311111 73.184021 90.248436 89.874222 44.203941 69.174469 60.656715 73.431961 37.651417 97.341316 47.846947 70.909485 93.358223 102.967537 95.413063 48.380951 87.929680 inf 122.571159 86.525612 53.650166 113.183640 99.960030 2130706432.000000 91.841805 112.303970 51.606350 67.627663 102.886078 88.227951 70.948174 91.647636 50.879498 85.614220 67.874741 80.475250 60.656715 81.997475 67.874741 inf inf 95.273262 63.438049 69.358932 90.752266 34.151260 70.144554 74.101425 94.649200 104.288696 82.622620 104.038399 85.783638 56.739964 19913144.000000 56.006889 81.381729 48.165924 36.715981 124.806145 inf 83.578407 57.038597 36.882587 100.036926 45.985855 34.205154 inf 84.391953 102.723541 71.810051 106.075043 47.255814 94.033264 78.484009 82.885918 48.927013 73.807037 112.110344 116.739677 55.058426 41.978050 78.864769 35.845646 95.133873 116.114288 40.437813 41.575447 58.317490 239.940964 95.553268 113.678322 42.863548 58.633003 49.074718 43.147976 141.279739 151.130737 84.064644 35.610077 83.150894 91.971710 131.760895 65.581444 53.124184 81.791199 91.133850 87.105156 70.031235 75.128830 100.734314 51.894653 73.101746 82.256798 76.453850 65.880447 inf 58.109024 89.441544 45.953358 85.896965 70.486717 41.258884 inf 90.060944 69.248138 37.199085 116.322006 134.625259 96.189346 68.808464 73.556564 inf 165.560791 inf 75.042122 42.086731 68.772079 78.626358 68.266670 inf 27.436287 65.285141 118.765297 130.373932 110.023689 92.891426 73.019653 67.945663 98.971077 41.495853 79.345940 69.321960 
Conv_232_param_0 288.195007 276.845123 425.689026 249.612289 731.634338 776.405945 449.993073 666.058899 464.872192 490.284637 737.338074 600.683594 645.800110 722.990967 859.111450 301.910614 910.222229 291.424103 398.614563 1007.148132 721.486816 725.006287 547.570557 542.431702 301.910614 640.630554 262.723236 533.804016 459.939880 641.816162 331.121582 711.616943 527.578064 656.808105 429.555725 472.901825 645.800110 806.499207 505.531586 664.782104 770.654785 736.294434 570.385986 799.066040 677.333313 683.114929 302.261475 634.767517 353.151398 478.557495 577.029419 416.820526 191.387787 440.840668 482.552887 254.497070 548.725708 540.459229 415.488831 516.832581 660.561279 424.646545 464.457153 963.318542 493.540802 610.912537 457.110718 648.214355 700.123840 649.023071 838.343262 414.165619 338.226257 455.509644 606.991821 383.905548 651.461487 533.530273 703.913391 590.121399 492.606049 730.094055 849.986938 721.486816 426.736664 581.544983 778.730530 508.248169 433.854889 950.122375 494.009491 603.471008 668.627258 611.271423 616.706604 486.615540 529.996948 616.341248 652.687561 185.782852 613.433960 762.744873 676.892639 563.588318 588.785522 907.839417 635.155090 608.411682 416.153595 320.512634 449.215881 404.189575 578.312378 850.681946 587.787598 455.111115 577.029419 515.041565 710.159729 462.392883 467.798553 360.743408 457.915497 542.997925 567.585388 818.555481 534.352356 397.700317 562.369751 351.956696 430.622528 671.215454 411.870148 484.350098 321.901001 484.801483 545.274658 604.171875 555.760681 688.540039 410.246063 598.954529 395.282684 505.040771 368.930511 721.987488 567.895203 297.933563 592.473816 374.238861 249.612289 748.477722 630.153870 484.801483 710.644836 500.666016 629.010864 544.703674 689.909790 582.848206 806.499207 577.029419 517.346619 525.181213 502.115845 757.745056 338.446320 585.801819 421.549438 659.723511 527.043579 585.142883 499.224579 771.226074 444.988892 571.639587 439.351349 545.274658 614.884155 614.520996 343.134552 487.984985 608.056091 734.215942 604.171875 387.335815 574.480408 658.887878 572.268433 475.495422 561.156433 457.512756 402.625397 636.320496 678.658813 544.418640 529.188171 606.284363 574.480408 491.674866 182.523514 473.763214 498.745911 494.479095 484.801483 749.556213 621.867310 551.927856 462.392883 431.336639 557.547668 518.377686 696.841248 716.024780 561.762390 623.357727 441.214600 413.178711 639.449280 571.639587 562.065918 458.723114 581.544983 610.195923 535.452393 503.574066 693.127258 644.999390 418.160767 721.987488 459.939880 652.278381 
Conv_242_param_0 inf 686.722107 inf 607.700928 417.824890 607.346191 576.390015 405.133942 485.706818 643.802002 620.384033 569.449341 539.898315 460.754639 625.230774 486.160736 427.437958 227.158081 646.201233 557.249084 413.836121 513.769897 413.178711 478.557495 745.260742 472.901825 699.182800 415.820953 522.281128 458.723114 455.908844 383.057434 428.141571 602.422668 605.226318 514.023743 323.502502 556.355103 567.585388 635.543091 392.597748 670.350525 736.294434 556.057739 392.894257 462.392883 665.207153 694.052063 483.000916 664.782104 520.452209 340.439789 845.840637 529.457520 inf 630.153870 497.791382 444.608551 443.093689 567.895203 544.703674 491.210571 453.128906 608.767700 541.302795 521.495728 592.136597 461.163116 594.165649 831.641907 435.307098 669.487793 429.555725 539.059082 602.422668 657.223022 497.315491 17045652.000000 582.521851 630.535767 406.082733 424.993469 454.713287 425.340973 409.600006 560.551697 444.608551 508.248169 537.111023 409.277740 589.786865 421.549438 393.488647 562.065918 534.626953 461.163116 462.392883 325.526917 inf 319.332092 546.133362 335.175262 574.797791 827.014282 inf 593.487732 836.994385 518.894775 514.786743 584.485413 612.711426 inf 749.016541 551.927856 506.023346 638.272400 638.664185 444.228851 488.443207 499.704132 513.516296 434.217041 638.664185 488.902252 626.360046 620.014282 550.467712 518.636108 541.021301 inf 469.064026 449.215881 553.395752 756.642883 676.892639 624.105591 394.982544 512.504456 483.000916 533.804016 440.094757 694.515381 715.040527 427.789459 688.996033 644.999390 660.561279 595.185364 336.476074 636.709900 559.346252 465.704559 503.574066 806.499207 323.703796 602.074097 683.563721 615.611816 480.325012 610.554016 610.912537 505.040771 535.176941 644.200623 431.694611 650.239990 506.023346 571.953796 438.980591 213.193436 574.480408 619.645020 inf 450.772949 617.072388 592.811401 434.943146 525.181213 547.858887 752.810425 546.420166 501.631622 591.463318 611.630798 693.589355 400.455750 651.053833 563.283142 455.908844 inf 508.000000 555.167542 598.265686 inf 634.767517 546.420166 361.495483 301.385864 623.357727 456.709381 inf 418.834137 530.267090 583.501953 513.769897 470.761993 629.772400 470.761993 664.782104 481.659271 591.463318 16910368.000000 inf 567.585388 309.453888 285.506042 590.791626 462.804260 inf 708.708435 611.630798 326.959137 483.449829 inf 710.644836 561.762390 526.510132 600.683594 400.764252 299.822479 529.188171 497.315491 
Conv_245_param_0 inf 95.343109 inf 30.328358 53.254711 55.011845 108.103073 52.396454 25.968052 80.725014 47.324600 56.297836 75.829735 24.029564 31.688108 49.223316 33.328548 104.877419 50.879498 86.353256 94.925545 23.645090 77.826454 97.927711 53.605934 74.611588 86.640907 48.059128 57.747780 60.940956 55.814590 48.059128 86.756508 68.772079 109.100670 34.753609 43.698925 30.934349 39.990158 53.827816 40.362507 85.840263 65.056526 84.721825 30.556391 29.882353 64.829514 66.966011 34.223160 16.681376 68.917862 90.373871 39.147503 63.624268 inf 54.596138 71.220154 18.957434 19.329370 54.186668 42.195976 52.779221 69.805687 84.832352 130.113052 29.610201 113.380997 92.891426 127.748528 99.501144 65.548386 73.639862 22.453039 70.144554 44.234013 25.222652 51.443039 1972876.375000 58.527454 129.788422 26.714872 24.065138 77.134048 28.444445 100.968941 42.141285 103.706535 24.262686 33.761162 40.387577 72.048752 44.782368 22.703911 84.337227 42.360912 52.354267 19.249260 85.221497 inf 115.086723 50.056969 65.548386 91.971710 85.953735 inf 43.291611 46.712643 43.964840 26.282942 44.143925 85.557892 inf 31.473379 100.578499 163.171890 73.225227 33.226368 72.571426 83.685974 29.237410 59.166515 75.085449 30.243721 82.727737 12.562596 29.583258 81.432686 76.364067 83.685974 71023544.000000 32.350250 78.436668 79.200974 54.504612 45.503151 58.580181 60.096119 78.389389 60.770092 43.378254 69.507217 86.238724 55.671234 31.412560 110.303650 50.720749 47.988194 66.691284 63.191448 67.768631 52.144348 21.180456 59.112728 93.224373 26.714872 67.874741 76.498825 81.534798 60.883896 94.649200 56.055172 31.382240 82.833122 79.882065 69.358932 99.883255 28.746243 70.563210 107.388931 174.678314 110.303650 37.651417 inf 46.346401 46.247509 86.410629 69.285027 56.988605 60.770092 92.429283 68.917862 86.930481 37.008537 86.698669 90.185852 48.489185 79.008507 70.258240 50.095531 inf 72.978676 32.302036 72.088692 inf 84.721825 50.056969 83.685974 88.648941 69.395943 41.495853 532676608.000000 59.985241 54.826305 86.872414 74.101425 39.384617 78.721550 25.600000 36.346561 31.171619 80.326126 3425573.000000 57586660.000000 29.882353 53.738842 48.634254 41.416561 73.681587 710235456.000000 64.348343 51.039246 66.283386 68.123627 710235456.000000 79.735130 25.579859 90.123352 68.195068 51.729515 32.512001 25.261848 69.918282 
Conv_247_param_0 167.264313 673.823853 497.791382 455.509644 573.530334 844.467529 669.057251 573.214355 658.470886 556.652771 784.603333 423.954346 376.405212 619.276184 441.964325 444.988892 376.677765 738.909119 515.296692 358.012390 353.391296 570.698853 639.056519 551.635193 594.845032 395.884308 392.597748 522.543457 193.379929 532.710693 720.487549 486.160736 548.725708 672.082703 321.304504 550.759155 603.471008 462.392883 274.507660 710.644836 521.495728 644.999390 699.182800 259.706451 618.172302 544.703674 759.959106 520.452209 295.060699 580.895569 386.472504 453.919708 491.674866 689.909790 650.646667 567.275879 561.459229 452.734558 525.977783 424.300171 684.013123 576.390015 377.497833 518.119507 604.171875 820.492126 436.769104 348.888000 453.128906 383.622406 590.791626 506.516052 810.267883 736.294434 634.380493 552.220825 689.909790 734.734436 712.104065 630.153870 401.073242 374.778107 384.473022 570.385986 517.089478 494.009491 749.016541 504.550934 481.659271 468.219635 451.947876 513.009888 303.850464 532.983582 494.949585 554.871460 781.655884 464.872192 594.845032 595.526062 453.128906 538.501038 492.606049 669.487793 701.067383 556.652771 473.763214 415.157227 459.127991 596.892700 580.247620 484.801483 768.946045 719.491028 495.420959 713.080200 391.710846 711.130554 540.459229 519.932007 556.950745 526.776733 490.747162 566.349487 570.385986 316.226135 481.213684 395.282684 468.219635 271.357330 740.486816 542.997925 641.420471 467.378265 217.653549 509.742279 655.566467 236.666061 437.872040 373.164978 481.659271 456.308777 540.178589 680.434265 584.813965 190.686218 483.000916 639.842529 568.826660 469.064026 489.822968 666.912842 561.762390 549.305176 489.362183 515.807617 553.985107 598.609924 578.956055 655.566467 413.178711 653.918274 450.772949 513.516296 389.365265 453.128906 629.772400 517.604004 595.185364 623.731445 559.045654 736.815857 761.070984 583.174866 407.354736 589.452698 383.905548 657.223022 708.226013 447.284607 423.609131 451.947876 491.674866 567.895203 505.040771 534.626953 567.275879 630.918152 529.727112 495.893219 565.118958 556.652771 417.154785 475.061188 644.999390 508.000000 678.216431 677.333313 630.535767 666.485596 830.977661 278.923309 541.584595 785.788513 400.455750 670.350525 746.329956 508.994141 632.452271 669.487793 446.900330 605.578552 594.165649 468.219635 537.388428 540.178589 634.767517 664.782104 406.717743 482.552887 544.418640 603.471008 683.563721 800.911499 653.918274 576.390015 519.932007 630.535767 634.767517 465.288025 416.153595 927.258484 
Conv_256_param_0 935.597107 759.959106 1242.249512 1080.918457 1126.566284 601.378052 1673.988770 1660.628906 744.194580 1365.333374 1154.058838 1539.029541 1025.514038 974.142334 1347.647705 1540.168823 1741.228394 817.269470 778.148071 521.757263 706.782593 633.993896 1676.686523 954.480713 987.081604 672.082703 1463.268677 695.443848 1779.955566 1080.918457 1098.610352 845.840637 1745.610718 1451.023682 819.200012 685.816772 1391.818115 1914.229980 795.400635 1058.376343 2048.000000 1608.012329 1122.312866 825.046814 1130.852173 826.357422 790.565369 1444.977783 702.962158 1148.326660 371.300507 493.540802 733.181091 1059.993896 1656.662476 1150.867310 1222.542847 2198.381348 757.193604 1103.270386 1228.316406 2092.275635 1190.370728 731.634338 1660.628906 2922.427002 1148.326660 667.768921 625.983154 1729.649170 1297.236938 714.059021 2449.403076 955.357239 1248.960327 806.499207 1594.458252 1294.815186 796.009155 1003.263245 796.618713 379.702179 1435.012451 649.428223 1590.801270 1238.552368 905.469116 1104.441650 1407.826782 2390.313721 1142.024170 591.463318 1809.363525 1810.938232 852.773743 764.988220 
Conv_257_param_0 1165.043701 616.341248 978.724365 1198.599121 1382.570068 1490.521484 709.675293 760.514648 1436.994507 1028.555664 845.153503 1647.480591 719.988953 1080.357178 1083.169189 601.030640 1034.693237 923.144653 1069.253906 1006.174072 1290.798950 1600.590820 1186.975464 693.589355 1047.190796 779.313843 1981.683838 1423.233887 1600.590820 1133.933472 1041.946899 1219.676392 1385.331543 993.680969 582.848206 1128.399170 558.145935 2290.333496 1316.941772 1259.544800 1106.791504 1478.868530 1027.539795 1314.446045 1334.681152 1360.868530 956.235291 541.584595 1262.601929 963.318542 1718.222900 1261.836304 882.429199 1239.290039 559.948303 1255.744141 487.527649 1370.729858 1229.768311 1468.431885 1027.539795 514.023743 1390.887695 1573.954590 537.111023 510.492645 1210.452637 836.994385 515.041565 826.357422 1798.416626 988.018982 1088.837280 1025.514038 587.455688 1089.407349 953.605896 1012.046692 636.320496 1444.977783 1017.490479 677.774597 1533.358887 788.767273 1378.905273 1106.791504 959.763855 1112.710205 859.111450 1515.490112 1545.890015 1328.715210 1535.622192 1518.808716 934.756531 1712.566284 
Conv_258_param_0 711.130554 1293.205688 752.810425 904.681763 475.495422 625.983154 1082.605591 807.124878 1018.486511 1016.000000 1026.019775 832.307190 1122.312866 803.385315 910.222229 651.053833 816.627930 1211.862549 1083.169189 870.614197 893.033447 1034.693237 613.433960 940.672668 926.432739 944.087097 832.973572 1063.787354 926.432739 892.267578 1077.002075 1411.647217 974.142334 927.258484 1122.312866 1303.739380 915.830994 608.411682 689.452637 1002.296753 847.908691 895.339050 1161.791138 608.411682 942.376831 1001.332031 704.389954 978.724365 1207.642456 763.864929 588.785522 631.300964 886.942871 956.235291 1121.103394 904.681763 703.913391 806.499207 813.435486 614.520996 872.073792 734.734436 766.114868 939.822937 1130.237915 1169.627930 1234.144775 961.537903 988.958191 574.480408 652.687561 877.961182 1076.444946 700.595276 699.182800 1391.818115 809.637329 676.013000 1021.486511 932.243713 1258.021729 1456.100830 766.679443 1174.248291 453.128906 736.294434 1365.333374 903.895752 681.325500 717.506226 902.327820 963.318542 807.751526 694.515381 1142.024170 1170.285767 
Conv_339_param_0 60.826942 190.267746 182.651688 67.803963 50.641743 99.806602 47.324600 311.865723 73.101746 74.398170 42.195976 79.931160 75.918274 118.656937 98.521210 36.924477 105.558441 121.540184 73.890907 48.525372 37.050713 87.989174 55.481228 108.373337 63.314507 67.069626 196.447128 69.248138 56.444443 52.822094 61.692600 39.697193 29.132616 74.568810 121.767792 96.403259 82.101013 101.441498 72.008858 92.101982 114.984970 59.436928 49.674561 53.124184 57.038597 36.861679 45.598877 35.262474 62.283524 121.996246 176.936050 158.691879 39.528267 50.919342 70.793686 69.432999 111.629181 159.470261 67.592514 63.624268 50.095531 82.517769 83.847839 59.220402 72.329254 35.532242 40.716343 38.866707 117.690498 41.024605 80.326126 89.688278 57.543362 99.273285 117.477867 113.579041 94.374458 172.249008 95.064331 44.751549 65.317932 126.015503 176.815765 41.363869 44.567513 29.132616 61.986652 46.881039 47.359066 86.468086 197.191818 112.888885 88.709412 241.724915 51.894653 77.363472 
Conv_342_param_0 279.222748 313.180023 628.251221 567.585388 840.374817 577.991089 357.274719 487.527649 420.187408 553.395752 282.866760 275.671448 784.603333 516.832581 603.121155 299.995392 483.449829 380.814056 471.188416 696.841248 417.154785 524.387085 513.516296 695.909058 704.867188 498.745911 343.587860 856.988464 421.891327 313.180023 310.007141 320.710236 476.802948 255.497055 400.455750 388.492920 581.220093 243.763824 432.412292 288.995544 466.539917 385.613037 520.192017 692.665771 361.998596 841.734619 437.872040 405.133942 411.218964 343.134552 263.521790 353.872101 573.530334 483.000916 350.297638 435.307098 560.249878 457.110718 326.959137 343.587860 651.869690 717.011719 520.712708 411.218964 495.893219 532.165710 205.609482 447.669525 599.644958 730.094055 333.242798 431.694611 392.301666 284.568939 769.514771 590.791626 500.666016 237.530594 703.913391 636.709900 541.021301 297.082825 668.197815 681.771973 620.014282 713.569275 343.361053 742.601013 422.576752 353.151398 473.332123 347.721924 402.003082 603.821228 674.697815 583.829407 
Conv_345_param_0 66.520714 272.780273 86.872414 440.467407 79.735130 71.770416 91.390022 58.213070 161.450027 61.575756 99.273285 87.339157 55.339573 95.413063 104.038399 334.743896 75.390144 86.814423 248.420242 113.282227 292.406982 174.210312 57.492485 54.687973 38.182034 72.530952 179.624313 80.525078 168.893509 57.696541 41.602047 504.062012 271.640717 58.265232 77.826454 31.171619 98.372162 141.973801 71.494225 57.492485 50.484470 65.548386 91.133850 52.102566 47.497444 222.494446 250.815811 88.588554 23.888317 68.881355 117.371841 98.521210 123.855240 90.185852 37.892773 47.671555 69.880707 81.894203 247.946609 103.130852 152.459549 129.465408 97.414230 49.560974 49.636642 174.444000 630.153870 65.947258 118.765297 169.554108 78.247894 48.201630 79.637474 59.655045 86.525612 55.105083 79.686272 162.357056 48.963856 134.904572 52.186195 481.213684 26.475571 116.634979 103.541405 51.280758 98.971077 47.187229 240.829636 157.729538 280.426941 91.070030 476.802948 97.341316 34.295357 147.530350 
Conv_348_param_0 70.220299 67.592514 38.475739 67.839333 56.789520 52.779221 53.827816 42.168613 49.037708 57.850533 38.797134 50.562984 90.562675 56.591820 42.471588 57.747780 58.422283 73.723358 59.874771 42.499348 54.413387 94.101303 58.213070 55.766724 47.811764 53.429745 59.545788 35.727474 42.694683 44.659340 56.297836 38.384888 83.956100 39.990158 38.635769 39.600487 81.178528 81.229233 42.388527 54.918919 162.458466 42.610748 51.770702 74.654419 38.521328 68.195068 85.953735 60.543762 90.879105 56.690498 49.636642 42.722733 51.853268 43.234043 52.060848 52.102566 60.713352 65.847092 59.005444 54.413387 48.853493 42.750820 44.690033 37.564415 59.059036 42.920132 49.000755 68.626915 61.459358 45.920902 76.453850 54.186668 33.586777 49.750572 53.167622 71.889442 42.863548 90.942657 27.859468 80.825356 120.192238 37.413120 56.055172 44.536987 28.320557 49.826820 95.064331 70.410393 69.581596 34.061813 48.707115 52.523426 43.494316 102.238991 77.501785 47.084721 
Conv_351_param_0 294.226257 476.366302 330.490479 399.226410 407.993713 461.163116 475.061188 477.240356 397.396484 386.472504 457.110718 390.827942 454.316162 319.332092 336.258575 385.613037 437.136139 424.646545 408.313965 436.402679 422.576752 422.233765 404.503876 410.246063 364.280121 351.718719 334.528625 386.472504 405.765991 430.266327 363.262573 403.562439 379.702179 366.332397 489.822968 361.244446 456.308777 399.840118 367.367218 357.274719 446.900330 423.609131 389.949036 442.716583 419.509674 356.052032 356.784637 371.300507 447.284607 350.297638 361.244446 369.980072 512.000000 473.763214 364.025208 378.596802 249.852066 396.790222 365.303375 429.910736 351.718719 445.751495 426.736664 389.949036 337.348907 486.160736 422.233765 440.094757 459.533569 483.899536 427.087036 447.669525 453.919708 375.861267 374.238861 358.753113 426.037689 424.646545 456.709381 412.850800 207.082809 213.368332 242.175049 279.823547 350.770050 284.257935 308.536194 282.866760 252.275467 223.066895 279.974152 339.772705 283.792694 242.175049 291.587433 200.846329 264.459595 251.057922 270.089294 376.677765 364.535400 376.405212 280.578217 344.498016 243.080368 204.961380 207.082809 309.086151 274.797668 250.815811 404.503876 216.566193 
Conv_360_param_0 142.284470 359.994476 705.345093 253.752197 173.397339 157.157700 507.504395 930.576050 510.242279 286.923340 219.305222 219.490295 578.312378 687.175720 341.781860 149.652481 540.740112 179.376556 324.309235 112.401039 321.304504 459.939880 161.751251 168.346924 361.998596 244.911484 596.208618 406.717743 282.099792 454.713287 414.165619 322.100311 122.686790 107.834160 257.393372 410.894165 344.498016 423.954346 524.651550 690.826050 718.993774 317.383759 544.989014 146.532959 82.517769 919.879761 525.181213 200.227875 588.119812 687.629883 133.863098 160.553085 568.205322 559.948303 234.955734 89.073975 220.233704 688.084656 386.472504 132.431778 206.098251 294.059906 954.480713 99.653641 416.486786 207.413071 141.587372 430.622528 402.313995 127.685814 92.692802 169.775452 100.191063 125.893517 118.982620 152.817856 322.100311 1225.422852 149.911240 757.193604 268.416931 309.086151 514.023743 580.895569 201.624802 531.350342 89.750175 778.730530 388.492920 514.532166 884.680298 183.813431 553.985107 736.815857 279.673126 254.248291 
Conv_363_param_0 901.545898 542.997925 430.979279 440.467407 414.826141 540.740112 312.991577 592.473816 444.988892 714.059021 646.602844 333.670288 849.986938 438.980591 672.517151 556.057739 789.365723 732.149170 1235.610474 660.561279 418.834137 525.977783 541.302795 386.759857 426.736664 591.463318 274.218231 620.384033 543.565308 510.492645 497.315491 635.931519 834.309570 512.252075 498.268188 240.384476 676.013000 1155.340332 375.589905 310.377075 243.535583 810.267883 420.187408 482.552887 559.346252 434.579773 416.486786 337.787018 369.717133 592.811401 335.391357 696.374817 527.310669 274.652588 379.425232 1017.490479 572.583374 704.389954 520.712708 521.234497 800.911499 508.994141 492.140015 609.124146 441.589142 369.192322 406.082733 694.979309 474.195068 583.174866 459.533569 338.666656 725.006287 389.656921 641.420471 239.058823 402.937256 412.196503 490.284637 515.807617 516.319580 373.164978 513.516296 374.508270 300.168488 882.429199 338.006500 763.304504 465.704559 553.985107 905.469116 694.979309 389.365265 440.094757 363.516418 448.828308 
Conv_366_param_0 54.504612 62.703953 79.686272 92.101982 87.574409 151.836548 107.923653 114.883392 103.212700 132.973419 43.816711 122.918716 161.050156 176.936050 118.548767 94.511627 155.932861 177.297882 49.447910 82.465439 142.674713 73.765175 155.188538 202.882996 138.275391 183.424545 113.678322 31.626459 70.986900 164.305756 136.676819 234.743683 145.957352 82.833122 127.310814 110.585037 88.648941 47.636631 144.739014 76.905975 89.750175 161.550308 192.806519 85.727097 94.856308 41.337570 134.694977 37.499424 150.518524 156.495789 38.159626 273.641235 158.209244 76.951477 99.730064 54.965343 157.157700 137.471466 39.076923 194.101486 46.545456 67.417313 277.731995 169.997391 82.413177 139.386917 98.446632 94.994888 63.314507 101.520683 134.486038 99.501144 175.978348 51.240345 123.151512 13.501661 56.444443 138.791885 55.528606 94.101303 278.028870 44.173912 103.049126 55.151825 84.391953 110.773422 97.706985 174.210312 92.560852 196.298874 84.010338 87.929680 68.735733 264.863556 25.926634 103.789307 
Conv_369_param_0 71.691292 61.868698 90.688980 35.905025 48.130276 41.575447 29.054512 37.327209 39.770031 88.952118 48.309063 88.347824 29.772894 39.843136 30.904943 28.797165 39.648781 52.736416 46.181820 44.264126 61.575756 45.344490 40.792973 46.512161 43.935135 39.552311 88.588554 45.953358 39.624619 45.155556 41.258884 45.218357 54.918919 34.753609 54.231861 34.624069 49.223316 37.914867 61.112782 29.583258 46.018402 64.126236 36.715981 40.014771 36.366890 98.075417 91.390022 42.499348 27.275167 76.588928 36.144524 49.636642 33.023869 44.476059 45.566925 46.914864 47.636631 88.168137 40.212738 43.552578 33.990589 47.776634 43.119362 32.658966 49.186081 42.059509 33.656315 36.530338 50.211582 47.221497 52.270096 135.185028 46.612186 61.112782 20.881182 46.982658 62.105061 41.789204 33.209396 55.339573 62.643547 46.478912 49.000755 48.201630 48.853493 65.947258 45.662922 56.938705 43.320454 84.721825 40.921333 35.262474 30.243721 28.797165 63.562073 45.888496 
Conv_372_param_0 302.261475 494.479095 496.840485 427.087036 376.950714 355.322418 419.848267 382.494110 460.346893 373.969818 404.189575 355.079865 387.047607 478.117645 458.318939 457.110718 420.527069 412.196503 397.700317 429.201324 427.437958 369.717133 387.047607 427.437958 390.534546 433.493347 425.689026 461.572327 407.673981 364.535400 499.224579 426.386871 381.372437 388.202972 470.336334 376.405212 443.471436 481.213684 489.362183 406.717743 474.627747 414.826141 536.280396 434.943146 483.899536 459.127991 416.820526 406.717743 358.505859 419.509674 389.949036 446.133789 344.498016 379.425232 359.745514 352.672546 469.064026 394.084839 477.240356 460.754639 442.340149 441.964325 406.082733 479.881927 373.701141 376.950714 416.486786 347.257690 424.300171 466.539917 373.969818 435.671692 398.920258 438.610443 414.495605 402.625397 574.480408 415.820953 443.093689 557.846619 241.052826 305.456268 273.210083 304.562073 262.061462 271.782654 290.935120 280.426941 197.942154 214.070786 249.852066 258.159790 283.792694 287.240204 321.503082 222.684937 215.847305 230.991119 293.727844 287.716827 240.162506 303.850464 267.313477 346.563629 205.123032 213.894730 223.066895 205.772156 256.884949 222.304276 304.919098 213.543518 
Conv_381_param_0 144.578094 191.387787 1209.045898 705.345093 213.718979 475.495422 407.354736 429.555725 1008.124023 390.827942 919.067139 433.854889 814.071960 718.001404 746.865784 510.743256 1061.074951 743.662598 127.435570 284.257935 898.431763 676.452515 333.670288 466.539917 1069.803589 486.615540 1403.080200 590.791626 1036.239014 619.276184 1074.222046 839.696533 247.474792 766.679443 775.248901 1041.425415 305.635712 284.568939 833.641052 1155.982178 938.974731 655.153625 768.946045 313.936035 528.113708 653.507507 528.919189 363.262573 684.913757 571.325623 265.946838 301.735504 220.607300 526.776733 233.899277 789.965088 445.369873 882.429199 260.356354 670.782715 657.638428 171.341232 1515.490112 522.281128 1197.909058 315.267883 903.111084 432.053162 950.990845 376.677765 295.060699 321.503082 494.949585 283.483368 399.533020 855.578918 1441.973633 1550.497803 170.554749 844.467529 240.162506 383.057434 833.641052 503.087036 298.960907 933.917419 507.009735 527.310669 363.770630 743.131409 1004.231689 476.802948 904.681763 761.628113 1101.518311 823.740295 
Conv_384_param_0 527.310669 352.911804 433.493347 477.678619 353.631531 411.870148 388.783264 486.615540 356.295898 490.284637 488.443207 416.153595 512.252075 434.579773 382.494110 292.406982 606.284363 710.159729 1089.978027 446.516724 438.610443 542.997925 336.476074 604.522949 676.013000 701.540100 602.422668 444.988892 490.284637 457.110718 334.959442 671.648804 410.569855 905.469116 371.300507 644.200623 476.802948 556.950745 311.865723 324.916931 392.597748 346.332886 356.295898 528.650391 562.369751 413.836121 426.037689 423.954346 676.452515 797.840515 269.669250 254.372620 444.608551 235.380997 307.079102 411.544312 313.746674 432.053162 560.551697 851.378052 481.213684 424.993469 386.472504 330.280640 427.789459 537.666138 425.689026 582.521851 365.303375 743.131409 509.492645 480.325012 429.201324 528.650391 358.505859 385.899109 383.622406 334.098907 691.285034 794.792969 437.136139 331.755096 624.855286 409.600006 320.908081 488.902252 448.441376 496.366425 424.300171 532.983582 311.865723 585.472168 435.671692 501.148376 357.520264 624.855286 
Conv_387_param_0 60.543762 50.681217 188.202606 144.578094 60.543762 42.416176 213.718979 164.721970 90.879105 120.414818 87.280540 160.454041 20.447800 66.520714 154.176651 153.448975 150.867752 164.826355 64.000000 147.029953 153.902954 105.472832 134.974579 72.369507 101.362434 88.287849 132.566772 102.480690 217.289886 138.201920 333.456421 60.940956 51.240345 52.865040 53.872410 61.517502 114.680779 77.779907 293.065918 77.548004 411.870148 140.592438 146.698257 102.480690 181.885315 113.678322 82.517769 110.867859 31.442940 59.819687 139.461655 105.644188 142.362335 36.225071 257.520782 145.630463 29.211142 90.185852 66.794044 174.444000 211.632217 140.668472 47.428154 43.205315 37.050713 41.842987 118.873856 120.081253 94.649200 37.936989 88.830605 42.976868 116.530464 155.373947 243.763824 89.380066 50.289249 207.247803 36.225071 243.080368 71.337357 70.486717 113.183640 148.881516 33.158592 99.197556 90.436714 154.911255 102.561516 74.313141 38.866707 94.169441 110.023689 30.075855 22.071962 97.927711 
Conv_390_param_0 50.562984 19.656590 60.431229 36.799095 32.658966 69.470085 35.532242 62.223923 35.786461 25.164087 39.867565 45.030472 72.733780 48.309063 36.428013 50.959248 40.513397 37.456223 89.812157 37.607864 28.746243 48.597908 38.092560 71.889442 71.533554 29.745655 46.645622 19.982790 52.736416 35.885208 66.317184 40.337467 42.582844 37.586128 52.951141 64.539948 89.874222 42.948483 34.169205 56.006889 47.118839 41.602047 44.143925 30.758751 48.130276 31.657253 31.022902 33.175510 29.422625 31.765511 36.204899 28.619719 43.994587 46.712643 19.597347 36.799095 68.917862 36.882587 39.336964 55.814590 33.778702 24.574451 36.861679 31.111961 33.569439 43.205315 49.111782 38.544163 36.044346 91.454292 60.826942 44.659340 44.354706 28.369982 32.398605 33.107944 39.552311 32.724712 44.937111 36.084351 39.528267 33.500259 40.792973 45.439552 29.637192 44.782368 63.624268 39.030010 35.474087 59.005444 50.172840 38.182034 66.249619 80.825356 34.568848 27.413153 
Conv_393_param_0 172.936172 404.818665 457.110718 419.509674 475.061188 474.627747 453.919708 432.772034 432.772034 472.043549 485.706818 444.988892 498.268188 417.154785 463.216370 421.891327 463.216370 411.544312 444.988892 440.467407 369.717133 449.604156 460.754639 402.937256 480.325012 441.964325 465.704559 442.716583 426.736664 495.893219 477.678619 479.881927 486.160736 504.062012 494.009491 461.572327 431.336639 472.472290 471.615601 423.264435 461.572327 431.694611 469.487366 466.539917 461.982239 322.900055 477.240356 492.606049 397.396484 441.214600 422.920319 469.064026 419.171631 416.486786 427.789459 381.372437 434.579773 386.472504 420.867310 374.238861 302.613159 388.202972 440.840668 439.351349 503.574066 455.111115 446.133789 455.509644 441.964325 442.716583 477.678619 449.993073 438.980591 433.493347 484.350098 448.828308 473.763214 457.512756 503.087036 469.487366 388.783264 222.875748 270.792297 248.420242 313.368683 301.910614 355.808472 351.006744 264.325195 328.196838 189.851089 201.624802 221.358292 214.955368 262.325775 337.348907 206.589355 323.905365 266.491791 263.521790 305.456268 323.905365 310.192017 329.443939 184.858566 229.766785 183.813431 232.852280 256.884949 242.626862 231.814621 391.416107 
Conv_0 48.259766 
Conv_4 47.647339 
Conv_6 54.045101 
Conv_9 47.647339 
Conv_12 238.017288 
Conv_14 100.104370 
Conv_24 121.944244 
Conv_27 204.732285 
Conv_29 101.234253 
Conv_39 135.333893 
Conv_42 206.633255 
Conv_44 118.469658 
Conv_54 105.417061 
Conv_57 208.984207 
Conv_59 96.149803 
Conv_68 155.967102 
Conv_70 135.320267 
Conv_73 155.967102 
Conv_76 323.183533 
Conv_78 167.412796 
Conv_88 183.479370 
Conv_91 274.757202 
Conv_93 123.442398 
Conv_103 148.509628 
Conv_106 330.521271 
Conv_108 126.742409 
Conv_118 151.711960 
Conv_121 312.034424 
Conv_123 130.044540 
Conv_133 166.887115 
Conv_136 249.158920 
Conv_138 99.228218 
Conv_148 148.180267 
Conv_151 280.009430 
Conv_153 99.142326 
Conv_163 138.325684 
Conv_166 269.443542 
Conv_168 119.909714 
Conv_178 149.909851 
Conv_181 299.873383 
Conv_183 138.842285 
Conv_192 178.580200 
Conv_194 111.497627 
Conv_197 178.580200 
Conv_200 1246.322388 
Conv_202 265.368378 
Conv_212 214.451813 
Conv_215 377.293152 
Conv_217 128.270020 
Conv_227 156.542999 
Conv_230 431.947296 
Conv_232 162.451553 
Conv_242 203.509796 
Conv_245 542.891785 
Conv_247 150.396439 
Conv_256 155.967102 
Conv_257 178.580200 
Conv_258 217.191254 
Conv_339 176.095520 
Conv_342 117.738235 
Conv_345 367.972870 
Conv_348 170.948425 
Conv_351 31.388496 
Conv_360 109.546753 
Conv_363 153.371704 
Conv_366 391.758728 
Conv_369 156.417175 
Conv_372 32.162785 
Conv_381 121.867592 
Conv_384 215.255768 
Conv_387 488.256104 
Conv_390 298.780914 
Conv_393 40.093788 
