Conv_0_param_0 785.788513 148.796341 302.085938 371.300507 165.455475 970.507446 153.630249 306.536255 140.897079 130.308624 759.404358 inf 644.599731 146.615555 138.201920 inf 782.243591 261.534454 118.548767 140.516479 167.912201 1066.513550 144.578094 172.821259 
Conv_3_param_0 79.588737 580.895569 61.459358 111.247223 433.132385 160.553085 551.342896 98.820671 426.386871 636.320496 74.101425 inf 282.713043 649.023071 453.919708 inf 91.006302 66.828369 471.615601 322.699738 1121.707764 166.728210 327.164795 1100.353271 
Conv_4_param_0 556.950745 100.500771 242.853409 162.763458 145.793716 221.170074 176.455902 344.726318 227.555557 103.706535 162.763458 199.307281 283.174744 205.123032 180.999298 278.923309 744.727295 273.785278 146.615555 187.254135 401.382721 193.236252 357.766174 141.818970 
Conv_6_param_0 428.494232 282.713043 229.563995 273.353638 342.456879 296.743866 251.543518 321.503082 212.670486 336.041351 395.583282 251.057922 588.785522 212.496735 100.578499 224.414154 354.354218 211.632217 717.506226 175.978348 293.727844 74.869316 586.131836 303.495911 
Conv_8_param_0 24.648977 143.938019 120.414818 141.356522 43.964840 35.474087 189.298401 246.070007 132.364380 166.195526 217.835846 68.881355 100.113937 81.637161 144.177383 32.110619 269.111237 124.328873 34.940353 98.745636 209.924133 159.862320 38.612827 36.164627 
Conv_9_param_0 695.443848 244.911484 340.217133 370.243408 332.816376 478.117645 286.765167 256.252228 281.032959 760.514648 410.569855 348.654144 335.391357 472.043549 439.722748 218.384552 809.637329 254.621628 403.875763 327.989899 425.689026 346.332886 196.447128 262.325775 
Conv_21_param_0 337.567810 156.968018 177.297882 383.905548 146.863922 215.133163 267.726196 188.202606 194.537018 245.605286 369.717133 303.495911 168.783905 144.981049 246.070007 250.092300 193.956741 226.170441 165.035538 330.280640 354.354218 401.692657 167.371948 97.414230 
Conv_23_param_0 41.337570 53.473682 50.760342 32.414757 42.471588 33.414185 59.491310 45.218357 139.237686 51.443039 51.894653 66.351021 114.984970 179.376556 50.018463 57.902046 52.186195 57.441696 60.431229 30.700661 51.321232 41.548882 50.328175 44.720772 
Conv_24_param_0 307.442078 286.291687 248.420242 381.372437 275.088318 337.567810 264.998474 231.402130 185.385605 316.611084 369.717133 257.138916 368.147217 257.520782 191.106537 326.753754 328.819214 294.059906 292.078613 236.881607 311.492218 312.803375 184.465256 241.724915 
Conv_36_param_0 289.478027 187.524155 117.584084 452.340881 463.216370 132.162598 365.817169 274.507660 136.461700 435.671692 122.455742 151.571091 173.051224 761.628113 313.180023 494.009491 455.908844 121.540184 419.848267 287.081665 168.674454 139.911774 466.539917 311.865723 
Conv_38_param_0 162.559998 39.336964 135.607925 56.938705 41.337570 99.121948 29.422625 37.370113 152.728134 59.874771 112.693237 84.173462 144.981049 35.984505 81.637161 43.147976 49.941628 35.262474 39.990158 37.542725 88.769966 73.556564 30.613935 53.827816 
Conv_39_param_0 194.828461 267.313477 149.223175 184.334518 233.689133 229.969940 159.372543 255.121140 127.937042 309.086151 172.591904 204.477982 204.638870 309.086151 246.070007 233.060928 198.698242 155.003571 92.957825 245.142319 161.349869 208.410263 217.471573 255.497055 
Conv_51_param_0 523.068909 96.047264 173.628845 340.885986 312.991577 318.745087 353.631531 179.997238 218.201340 371.831299 338.446320 246.770401 363.009064 441.589142 493.072998 246.536499 130.178177 157.921066 492.606049 226.761993 400.764252 364.025208 183.295273 237.097534 
Conv_53_param_0 44.844139 28.644934 42.778946 74.017075 58.317490 70.563210 30.787878 48.525372 165.560791 98.820671 138.055206 134.974579 83.901932 90.562675 96.047264 114.177345 152.997650 94.787170 19.135962 51.159718 95.064331 89.874222 44.445660 33.972832 
Conv_54_param_0 278.624542 170.331375 286.607178 221.735718 209.754837 222.114426 416.486786 199.002289 245.837433 218.018448 181.251572 322.900055 261.271729 279.072968 171.115784 325.323334 154.819046 196.744324 298.617676 238.183151 295.899872 273.929443 273.641235 352.911804 
Conv_57_param_0 133.656738 151.306580 104.038399 212.496735 187.930634 219.120468 226.761993 229.361557 274.507660 228.154388 294.059906 272.351837 254.248291 369.717133 308.719299 341.781860 276.845123 339.108215 347.954529 393.488647 366.590546 288.354767 477.678619 462.392883 328.404053 209.585815 423.609131 251.057922 260.226105 204.156982 258.287994 226.959854 263.121887 292.242706 285.506042 340.439789 313.936035 337.348907 287.716827 255.622604 380.535492 277.731995 260.617249 308.353302 284.880615 291.750977 332.391052 295.899872 
Conv_58_param_0 639.842529 158.113068 187.659454 495.420959 300.341797 230.581558 139.911774 217.471573 479.881927 258.930817 259.836151 455.908844 347.954529 183.424545 225.973938 342.908386 302.085938 259.706451 332.178802 319.528259 285.036713 476.366302 181.251572 291.260925 478.998169 476.366302 301.910614 367.107971 676.013000 293.231110 192.521103 194.828461 630.535767 198.092911 254.000000 385.327393 600.336975 414.165619 319.921265 228.154388 369.717133 348.420624 400.147705 173.860962 352.672546 438.980591 214.777863 380.257324 
Conv_60_param_0 349.122162 312.615387 446.133789 331.121582 415.488831 299.477264 211.804565 228.555359 331.755096 367.367218 268.694214 321.106171 290.935120 293.562073 316.226135 455.111115 262.061462 169.223160 455.111115 384.757385 392.894257 222.875748 475.495422 302.085938 235.168167 345.413025 332.603577 334.098907 351.718719 377.224091 193.956741 368.147217 348.654144 246.303024 242.400742 347.489655 344.954895 239.719818 273.210083 366.074585 272.780273 338.666656 735.773682 360.743408 343.814941 314.505432 165.035538 344.498016 
Conv_62_param_0 104.038399 196.003021 140.973434 121.881912 115.701065 129.594421 182.780045 115.701065 122.571159 183.424545 62.885880 72.128677 128.633041 167.371948 105.131767 127.000000 117.477867 87.456627 94.649200 83.956100 107.566582 84.119019 96.331848 126.876099 79.735130 107.477684 85.614220 130.767227 48.130276 122.802643 155.003571 158.305542 84.777054 123.973305 177.297882 69.395943 145.142853 156.307693 77.088326 119.749542 181.885315 134.555618 55.386711 76.951477 125.287094 99.883255 133.519501 97.414230 
Conv_63_param_0 429.555725 511.245209 433.493347 387.047607 446.900330 339.108215 319.528259 405.765991 386.472504 408.955963 276.697876 227.158081 361.746857 327.989899 240.606842 255.874084 441.214600 524.651550 463.216370 339.108215 565.426086 430.622528 287.081665 535.176941 410.246063 268.416931 290.447784 284.257935 434.217041 362.503143 408.634735 392.597748 639.449280 216.206146 434.579773 211.288376 416.153595 261.009521 588.119812 215.489639 289.800568 227.356644 149.566422 351.718719 616.706604 679.101807 526.243774 341.781860 
Conv_75_param_0 402.937256 640.236328 317.771545 427.437958 329.027191 233.479355 527.043579 702.962158 511.748169 239.499084 246.770401 400.764252 201.156998 435.671692 602.771729 314.505432 472.043549 429.201324 460.346893 365.560089 415.157227 420.187408 330.910950 340.662750 309.269928 545.560547 409.277740 338.887299 176.455902 290.285706 338.226257 325.119995 357.029510 633.607788 508.745239 271.924713 262.988892 263.922882 566.657959 475.495422 371.565704 297.422516 312.615387 335.824402 218.201340 280.275848 428.141571 400.764252 
Conv_77_param_0 42.305790 32.063118 61.692600 56.789520 89.257378 127.000000 68.123627 25.519623 42.527142 45.823818 62.946758 37.305794 98.446632 105.816109 52.865040 175.621872 63.655407 49.372818 74.483391 268.833069 90.879105 94.033264 80.674934 92.232628 224.220688 75.172256 205.123032 47.776634 109.745148 48.963856 54.780117 181.377960 158.305542 70.986900 74.568810 91.518646 143.224670 77.042656 52.019199 62.764481 55.958691 53.650166 83.956100 62.825119 123.855240 65.847092 38.362244 154.451309 
Conv_78_param_0 268.555511 271.924713 220.982162 346.332886 467.798553 304.383850 203.199997 261.403015 330.910950 178.514755 299.649780 155.373947 433.132385 232.436096 285.662811 274.362854 423.954346 222.875748 316.418488 245.605286 581.544983 299.995392 179.006195 246.536499 627.115112 363.009064 257.776001 207.578613 455.908844 302.789276 212.844513 268.140198 301.910614 202.882996 213.718979 220.420334 439.351349 168.783905 183.943420 352.194977 568.205322 280.578217 476.366302 432.412292 151.747955 238.183151 258.159790 429.910736 
Conv_90_param_0 967.799072 294.893433 301.211334 281.946869 431.694611 206.261703 174.678314 331.966827 269.111237 288.035431 396.185822 322.100311 309.086151 538.779907 244.681091 208.076797 420.187408 187.930634 502.600952 241.052826 282.099792 231.814621 329.027191 268.416931 314.125610 196.744324 525.446472 206.261703 225.777771 361.495483 291.587433 287.716827 342.908386 570.385986 221.170074 329.652710 257.011871 198.546570 584.813965 216.206146 433.132385 313.746674 279.974152 655.566467 210.945663 531.893677 206.425400 184.858566 
Conv_92_param_0 34.367867 41.522350 111.821152 61.055401 105.131767 44.968189 104.288696 59.929955 64.316521 52.312149 81.791199 83.793816 208.410263 30.671698 52.651012 46.813534 128.888000 183.943420 28.899555 101.047394 87.222000 121.767792 42.976868 148.626282 55.433929 42.976868 72.652512 75.653290 132.162598 66.862724 253.011673 31.082218 61.868698 72.329254 207.247803 39.218334 88.891319 74.526077 72.978676 121.426704 47.016632 65.980721 61.285580 65.980721 122.225563 40.337467 55.814590 104.708534 
Conv_93_param_0 611.271423 249.134094 349.591400 203.836990 624.855286 212.670486 424.300171 220.233704 423.264435 251.057922 219.120468 392.597748 524.387085 215.668320 116.010704 249.612289 505.040771 230.786163 424.993469 520.973450 413.178711 201.781219 249.372955 193.379929 367.107971 394.383636 412.523407 277.287842 606.284363 492.140015 567.585388 490.747162 390.241547 434.579773 400.764252 270.510651 585.472168 241.500458 361.495483 271.215851 368.407928 185.517838 347.954529 223.834763 659.723511 291.097931 440.840668 244.911484 
Conv_105_param_0 319.136200 194.391632 557.846619 220.047379 347.489655 618.907776 599.644958 290.285706 291.424103 639.056519 563.893738 241.949768 410.894165 207.247803 517.861633 546.994751 362.503143 277.140106 254.996078 295.899872 433.132385 542.431702 322.900055 240.829636 274.652588 768.946045 376.405212 314.886200 622.239258 265.268738 915.025513 667.340576 352.433594 486.160736 404.189575 571.012085 424.300171 298.446350 291.914703 190.546524 319.921265 214.955368 337.787018 241.276443 359.000702 326.548645 627.115112 371.831299 
Conv_107_param_0 52.994293 59.274384 143.620102 67.104233 287.876038 126.260193 68.410309 97.780449 91.454292 32.158260 93.024323 88.891319 154.085312 88.709412 31.595724 29.772894 73.431961 205.123032 74.912445 112.207077 28.771681 41.337570 92.626778 97.414230 70.524948 26.671041 63.376217 218.201340 76.408928 151.571091 43.905468 81.997475 101.679436 98.745636 36.715981 37.434658 35.825897 77.779907 297.763031 127.373161 143.303589 180.999298 87.870270 75.697319 54.642017 100.113937 84.227982 108.193008 
Conv_108_param_0 619.276184 352.433594 436.769104 414.165619 485.253723 543.849426 277.731995 216.566193 483.899536 353.391296 299.649780 252.765793 461.982239 370.507111 347.026031 203.199997 395.884308 287.398895 321.106171 214.423737 725.511841 480.325012 430.266327 322.100311 517.346619 279.823547 381.093048 510.242279 366.332397 368.930511 228.154388 236.236145 432.412292 251.057922 743.662598 251.787033 408.955963 242.175049 374.508270 245.142319 345.642517 186.181824 701.540100 282.099792 445.369873 230.173447 357.029510 566.349487 
Conv_120_param_0 224.802078 295.060699 430.622528 312.615387 293.562073 516.575989 399.533020 139.014435 381.652252 400.764252 367.626862 246.770401 321.901001 280.729614 373.969818 336.693848 388.492920 297.252563 297.763031 311.678864 289.800568 333.029449 293.231110 250.574188 442.716583 215.489639 303.142181 347.257690 396.790222 215.133163 228.154388 548.436462 312.052795 504.062012 595.526062 346.794678 587.787598 343.587860 624.855286 577.349609 356.052032 408.634735 314.505432 359.994476 478.117645 431.336639 310.377075 257.393372 
Conv_122_param_0 51.119495 82.675140 141.664490 42.499348 38.271923 69.432999 109.745148 186.850571 186.850571 146.368042 94.033264 119.639374 73.266479 198.395111 102.238991 60.431229 83.524727 93.694527 142.362335 102.967537 63.376217 91.906715 58.527454 87.456627 55.011845 69.137695 180.246704 77.409523 135.891327 69.358932 61.227871 87.870270 112.693237 37.370113 118.982620 113.479927 32.940224 71.259178 37.936989 35.688255 144.658508 65.847092 69.470085 53.473682 65.980721 92.560852 71.142235 79.735130 
Conv_123_param_0 518.894775 334.528625 297.082825 334.743896 569.137878 339.772705 348.420624 297.082825 496.840485 295.228149 432.772034 289.962097 640.630554 327.989899 676.452515 279.673126 389.656921 241.276443 325.526917 330.910950 528.919189 237.965240 402.625397 380.535492 465.704559 393.488647 496.840485 348.187408 527.310669 147.614075 613.795898 783.421692 400.147705 506.516052 413.836121 302.613159 370.771210 381.372437 338.887299 582.521851 497.791382 371.565704 417.489563 339.550903 487.071167 282.406067 317.771545 394.383636 
Conv_135_param_0 268.694214 273.210083 253.504868 556.355103 326.753754 176.695648 236.881607 471.188416 192.806519 237.097534 479.439636 639.056519 207.247803 112.401039 386.759857 115.495560 224.802078 200.227875 344.270020 238.401474 406.717743 355.079865 340.885986 428.494232 303.850464 237.313873 580.571411 317.190247 201.001541 416.486786 389.074036 180.246704 348.888000 266.628387 355.565277 215.133163 667.768921 581.870239 229.159470 336.258575 292.078613 255.497055 258.287994 240.606842 300.341797 354.595764 291.097931 318.549896 
Conv_137_param_0 65.383614 121.426704 60.096119 35.865417 118.118073 177.418823 123.973305 56.888889 125.166504 191.387787 110.210167 43.816711 92.957825 64.604073 94.033264 50.406200 205.123032 78.295006 70.678261 79.540062 34.386040 83.685974 70.909485 64.636185 54.141548 93.897476 76.229774 85.445465 171.003281 91.070030 110.397285 108.373337 36.448429 85.953735 126.752434 61.751186 46.578796 55.481228 121.087524 111.247223 68.016739 131.295303 71.929207 50.328175 78.060020 54.872574 115.290779 84.556564 
Conv_138_param_0 445.751495 422.920319 472.472290 247.474792 830.314453 305.815399 178.637360 312.427643 376.405212 221.924911 391.416107 384.189056 148.541412 281.641571 236.881607 213.368332 502.115845 651.053833 205.284927 250.815811 583.174866 323.703796 448.828308 235.380997 511.245209 195.267273 368.669037 219.120468 434.943146 412.523407 562.369751 339.108215 615.611816 192.094528 509.992157 353.872101 553.101562 444.228851 237.313873 387.335815 246.770401 275.817596 378.046509 171.454193 476.366302 331.332489 440.467407 397.093140 
Conv_150_param_0 448.441376 473.332123 284.568939 278.923309 363.262573 341.781860 318.354950 440.840668 397.700317 436.036896 402.313995 337.787018 487.527649 218.568069 222.875748 186.181824 324.107178 317.771545 382.494110 245.605286 383.905548 388.202972 488.443207 222.684937 861.245056 479.881927 585.472168 272.780273 420.527069 288.035431 174.327072 431.336639 544.418640 418.497192 539.059082 214.423737 603.471008 316.418488 660.561279 177.056503 365.817169 358.753113 172.821259 313.180023 237.530594 349.591400 264.998474 299.995392 
Conv_152_param_0 79.394386 58.633003 164.409607 170.108566 81.127884 110.773422 82.727737 77.363472 167.156815 33.141693 134.347107 60.713352 89.936378 74.483391 60.826942 75.873978 171.115784 112.595673 101.441498 110.210167 193.379929 94.237679 73.514977 147.530350 36.104385 72.978676 36.265476 76.815125 116.530464 30.875593 80.925949 183.037292 29.080502 73.266479 58.898552 144.981049 76.634064 60.826942 35.688255 117.903900 151.747955 121.313431 67.698074 61.986652 92.891426 149.308838 105.046852 121.200371 
Conv_153_param_0 690.826050 384.473022 610.554016 353.151398 272.494507 638.272400 625.983154 236.450912 441.589142 483.449829 303.850464 493.540802 419.848267 244.451126 246.303024 260.356354 516.063477 337.787018 420.527069 379.702179 538.779907 292.242706 238.183151 284.880615 305.097961 296.574677 377.224091 276.697876 555.760681 361.998596 366.590546 515.807617 525.181213 577.349609 661.401123 268.972076 394.682861 283.174744 388.783264 397.396484 460.754639 323.502502 586.462219 178.026016 463.629242 230.173447 759.404358 275.963928 
Conv_165_param_0 313.746674 163.069595 540.740112 300.341797 406.399994 352.672546 339.994781 237.747711 419.171631 173.628845 292.571442 486.615540 206.753571 288.674805 299.304962 315.076935 146.368042 513.262939 298.960907 359.745514 1005.201904 360.993744 307.079102 342.682465 212.150085 605.578552 343.587860 474.195068 906.257812 267.176178 284.568939 1234.877197 499.704132 280.729614 398.614563 207.082809 328.404053 372.630371 304.919098 306.897949 403.875763 359.745514 352.194977 459.127991 420.867310 558.145935 299.822479 333.242798 
Conv_167_param_0 85.727097 85.109947 35.610077 135.820358 109.468010 60.151711 92.891426 89.812157 72.128677 70.220299 68.087959 266.219025 67.945663 102.642464 198.092911 106.771759 86.930481 41.602047 123.855240 107.566582 64.991501 72.128677 226.367279 58.057144 166.514725 29.502722 215.847305 145.305023 65.980721 157.825241 51.119495 137.398834 47.393585 173.051224 33.226368 67.945663 105.558441 103.623901 122.686790 85.389366 93.762077 133.314194 129.983002 89.318680 106.335243 90.499649 60.431229 39.600487 
Conv_168_param_0 374.778107 285.819794 606.284363 400.147705 505.040771 342.908386 323.703796 326.343781 438.610443 311.492218 447.284607 256.252228 322.499695 299.995392 446.900330 681.325500 334.743896 598.609924 407.035980 365.817169 266.765137 211.804565 254.497070 171.115784 435.307098 421.891327 423.264435 412.850800 349.356628 160.157639 423.954346 395.583282 453.523987 271.498962 373.969818 531.893677 628.251221 173.397339 509.243256 334.313629 227.356644 317.383759 550.467712 306.897949 664.357605 303.318939 401.073242 403.249603 
Conv_171_param_0 369.454559 254.000000 354.354218 332.816376 366.332397 388.492920 310.933655 381.652252 392.301666 363.770630 330.071075 371.831299 233.060928 232.228577 276.992554 290.447784 277.435730 359.248627 289.800568 307.988159 261.271729 238.839310 278.177551 183.553986 289.800568 257.903809 230.173447 280.426941 263.789032 225.191345 314.886200 225.973938 219.120468 330.490479 298.275238 208.410263 284.102661 298.960907 284.880615 312.615387 233.060928 322.499695 303.318939 299.304962 285.036713 204.477982 261.534454 292.406982 283.328979 194.101486 275.233856 238.620178 256.631470 266.082855 169.333328 238.839310 220.982162 301.735504 161.249847 212.844513 263.388367 186.448746 263.121887 246.070007 173.977264 189.574341 156.873337 190.267746 201.937881 311.865723 225.777771 198.546570 201.468628 204.156982 194.828461 252.275467 343.134552 176.575699 172.477448 175.148819 239.278748 310.192017 161.349869 225.386475 228.354691 199.002289 188.066528 208.912445 194.101486 372.630371 313.936035 180.999298 163.376877 152.014023 291.587433 164.513596 
Conv_172_param_0 1173.586060 538.779907 584.157227 774.095215 534.078003 574.480408 295.060699 361.244446 1078.677002 395.884308 519.672302 216.026581 313.746674 376.405212 427.789459 293.396515 528.650391 339.108215 681.325500 692.204895 718.497253 298.960907 888.457703 382.775574 651.869690 517.346619 230.581558 261.271729 574.163330 415.820953 450.382690 470.761993 326.959137 380.535492 436.402679 234.955734 496.840485 436.402679 738.384644 630.153870 915.025513 472.901825 718.497253 552.514099 715.532349 457.110718 403.875763 866.264771 1034.178955 551.927856 429.201324 180.999298 641.025269 558.145935 680.434265 398.309357 585.472168 350.297638 542.997925 514.786743 774.095215 825.701599 281.794159 235.594208 460.346893 512.504456 482.105652 469.487366 705.345093 672.952148 529.457520 286.291687 534.901794 560.551697 367.626862 501.631622 789.365723 459.127991 800.911499 583.174866 1108.560425 273.210083 546.133362 278.475372 778.730530 336.258575 480.768951 587.124146 800.295410 546.133362 419.848267 360.493408 680.434265 491.210571 261.271729 414.826141 
Conv_174_param_0 269.529541 236.450912 389.074036 472231.031250 372.097290 341.557465 386.759857 292.406982 303.318939 400.147705 172.135010 333.029449 247.004745 169.554108 416.820526 332.816376 272.923401 426.037689 448.055115 424.646545 337.348907 263.655334 327.783234 373.969818 316.034027 359.000702 413.178711 367.886841 306.355713 324.511536 320.512634 313.936035 410.569855 570.073425 387.913483 309.086151 301.385864 230.581558 429.910736 237.530594 340.217133 348.187408 396.790222 410.894165 251.300476 286.134216 287.557770 320.908081 314.125610 326.343781 333.456421 367.626862 371.035675 535.452393 436.402679 273.066681 183.943420 451.163910 371.300507 462.392883 383.622406 211.288376 488.443207 330.280640 349.122162 456.709381 464.457153 403.562439 458.723114 235.380997 339.772705 311.865723 334.098907 358.012390 337.787018 322.900055 357.274719 261.534454 301.211334 297.933563 280.275848 361.244446 364.791016 371.035675 272.494507 274.652588 302.437195 261.797699 342.231567 339.329407 269.389954 372.630371 343.361053 380.814056 239.499084 309.638092 
Conv_176_param_0 106.684166 77.919716 103.130852 24089.933594 87.989174 100.890610 75.128830 68.772079 60.883896 100.812401 60.543762 88.347824 79.394386 84.010338 66.452736 83.632156 145.467560 102.723541 123.151512 83.901932 78.153847 101.520683 85.165688 106.947365 92.560852 101.362434 116.634979 99.273285 55.958691 110.773422 69.470085 112.595673 105.730080 81.585945 100.036926 46.679111 62.463017 95.203514 68.087959 88.528252 43.062252 54.141548 62.105061 47.566936 20.069136 78.912621 112.790977 62.223923 135.255325 116.218048 95.483116 87.810936 128.126114 79.345940 136.748688 84.666664 57.441696 97.780449 95.905602 96.689964 85.840263 94.033264 119.970482 116.426140 56.493484 75.042122 86.583221 116.426140 165.983414 82.256798 135.114807 129.529877 66.384888 93.024323 88.168137 48.273201 112.498268 116.634979 83.204094 94.169441 68.016739 105.902283 87.397850 49.447910 72.168701 89.750175 42.582844 86.181580 106.947365 75.962616 85.333336 70.601517 110.962456 102.804741 59.328468 80.029541 
Conv_177_param_0 1017.490479 319.921265 516.575989 316.418488 631.684265 394.682861 840.374817 380.535492 444.228851 546.994751 563.588318 532.165710 590.456299 472.043549 699.182800 944.087097 688.540039 762.744873 673.823853 617.072388 723.493713 392.301666 668.627258 222.114426 820.492126 541.021301 429.910736 272.494507 680.434265 425.340973 372.897491 455.509644 869.159546 292.242706 797.840515 399.533020 449.604156 373.432892 472.901825 519.412903 1058.376343 250.574188 598.954529 418.834137 658.887878 268.140198 653.507507 291.914703 812.165466 247.474792 519.153687 374.508270 796.009155 380.814056 599.644958 632.068054 1112.115479 217.653549 756.642883 270.370056 848.600342 647.407593 223.642303 288.514709 1097.451416 629.010864 779.898071 624.105591 722.488892 480.768951 612.711426 287.081665 867.709778 566.041321 831.641907 283.637939 738.909119 523.068909 510.242279 609.124146 304.562073 249.852066 723.997192 565.426086 600.683594 488.902252 640.630554 409.600006 1045.612061 554.575684 489.822968 465.704559 672.952148 641.025269 627.872070 726.018127 
Conv_189_param_0 395.583282 344.498016 567.895203 436.769104 319.528259 370.243408 715.040527 478.117645 411.218964 260.356354 536.280396 361.244446 383.057434 268.833069 621.495789 376.677765 596.550476 482.552887 378.321442 679.101807 400.147705 252.520386 318.549896 370.771210 416.820526 326.959137 401.382721 330.700562 346.794678 309.453888 389.074036 408.634735 392.006042 395.282684 304.205841 445.751495 416.820526 383.057434 451.555542 500.184601 392.301666 528.113708 281.184875 319.136200 316.418488 441.589142 399.226410 534.901794 649.428223 663.933655 532.710693 383.057434 399.226410 307.623901 449.604156 335.607727 420.527069 383.905548 496.366425 577.670166 386.472504 441.214600 367.107971 378.046509 402.937256 327.989899 401.073242 334.743896 568.515869 405.765991 576.709534 572.268433 459.533569 454.713287 275.379578 283.020660 459.533569 242.175049 352.433594 381.372437 401.382721 376.950714 556.355103 432.412292 442.340149 415.820953 754.995667 665.632751 387.047607 534.901794 398.309357 287.876038 375.589905 389.074036 275.088318 368.147217 
Conv_191_param_0 123.268250 93.829727 136.964722 142.988449 68.266670 157.252716 45.920902 127.186310 43.905468 85.221497 126.629013 107.477684 150.431458 55.718937 50.999214 75.390144 82.780396 86.640907 170.778732 73.681587 124.567047 74.826241 133.656738 111.917381 176.936050 202.409332 144.497772 139.014435 179.376556 83.471115 187.389053 207.578613 182.395508 84.337227 98.446632 78.106911 48.023632 166.514725 123.502373 104.624298 80.976341 53.298359 126.876099 83.632156 117.584084 195.708054 221.735718 84.832352 43.119362 54.141548 57.543362 186.181824 160.553085 94.511627 167.912201 106.509422 97.560387 96.403259 183.424545 63.842907 73.890907 107.211868 131.760895 222.304276 82.727737 119.419655 104.121696 87.515480 102.886078 101.204666 59.274384 107.923653 132.028427 166.195526 115.804092 216.386017 190.826126 103.955238 108.283096 130.701508 132.162598 50.134155 71.220154 49.260605 140.820786 163.685333 64.700500 76.543846 118.118073 105.046852 58.005352 55.245541 108.373337 160.454041 129.465408 93.762077 
Conv_192_param_0 687.629883 623.357727 535.452393 628.630798 1089.407349 446.133789 575.115540 258.930817 992.732849 641.420471 714.059021 232.644012 529.188171 175.266846 750.096619 211.116882 823.088623 182.012604 222.114426 300.862915 1113.901489 428.141571 537.944153 418.497192 587.787598 266.355347 277.583771 226.170441 210.774719 253.011673 580.571411 595.185364 242.175049 565.426086 241.276443 292.900909 976.886414 496.840485 702.013489 238.401474 729.070801 449.993073 743.131409 197.191818 483.899536 222.494446 442.340149 371.831299 227.356644 336.041351 719.988953 604.874390 584.157227 392.894257 356.295898 391.121796 589.452698 401.692657 468.219635 500.184601 237.097534 395.282684 289.639191 321.503082 327.783234 193.812225 273.641235 610.195923 561.762390 337.567810 279.823547 217.471573 676.892639 333.029449 469.911469 334.743896 622.239258 434.579773 432.053162 687.629883 309.822510 216.746674 830.314453 330.490479 580.247620 202.724869 442.716583 635.543091 1150.867310 673.387695 784.603333 472.472290 718.001404 620.384033 607.700928 348.888000 
Conv_204_param_0 529.457520 452.734558 260.356354 259.706451 338.887299 821.788330 392.006042 532.438049 479.439636 406.082733 472.043549 270.792297 398.614563 281.946869 270.933319 312.615387 378.046509 289.962097 424.646545 533.256775 291.424103 269.809143 389.656921 455.908844 565.733521 450.382690 453.523987 376.677765 225.581955 392.301666 382.213074 308.719299 379.702179 374.778107 435.671692 523.595398 339.994781 391.121796 426.037689 407.673981 209.417068 393.786530 388.202972 541.021301 359.496887 455.908844 318.549896 437.136139 375.861267 407.993713 343.814941 421.208099 337.787018 319.724640 360.243774 423.954346 350.770050 270.792297 377.497833 487.071167 628.630798 407.673981 337.130280 380.814056 572.898682 538.222473 370.243408 487.071167 553.985107 392.894257 421.549438 473.332123 313.368683 568.205322 503.574066 466.958710 330.910950 491.210571 325.119995 596.892700 348.654144 430.266327 438.610443 312.615387 396.790222 303.318939 355.079865 527.043579 375.589905 393.191223 428.847473 332.816376 361.244446 406.717743 441.964325 531.621887 
Conv_206_param_0 151.571091 87.989174 113.977211 120.862457 61.285580 47.428154 92.363640 117.371841 59.764706 206.589355 94.374458 35.435421 75.172256 186.315186 95.064331 77.779907 131.627533 144.177383 132.364380 42.059509 74.313141 189.989777 179.129471 116.634979 78.531403 80.976341 81.842667 168.129288 171.907471 108.826775 200.227875 94.856308 48.453056 107.123558 83.956100 143.224670 174.795700 207.744415 76.140518 147.865829 65.285141 68.881355 88.347824 76.815125 98.372162 62.283524 123.502373 54.780117 159.666046 86.698669 54.734005 70.068962 124.328873 118.656937 94.856308 114.883392 101.283485 71.298248 121.313431 95.905602 92.891426 57.594330 104.540192 88.709412 72.208771 166.621399 70.372292 119.970482 134.625259 150.867752 85.277374 52.102566 42.305790 80.078819 54.918919 151.747955 73.932915 79.200974 211.804565 78.769234 43.611000 97.268509 151.394638 84.227982 88.830605 87.339157 61.517502 126.260193 84.227982 116.322006 126.015503 215.489639 116.530464 84.666664 74.912445 81.330833 
Conv_207_param_0 730.094055 273.929443 859.111450 480.325012 206.261703 301.385864 1098.610352 461.572327 479.439636 234.743683 453.128906 586.131836 685.816772 494.009491 295.563629 370.243408 626.737366 323.100616 576.390015 286.923340 225.777771 496.840485 1074.776855 244.911484 545.274658 637.490173 655.979797 318.549896 908.632324 340.217133 368.147217 379.702179 476.802948 312.615387 1037.272217 448.441376 568.205322 230.377319 488.902252 324.511536 476.802948 236.236145 310.007141 753.901428 227.158081 282.866760 1051.955566 312.052795 909.426575 189.574341 1103.855713 417.824890 827.014282 339.772705 1193.100952 556.652771 428.141571 708.226013 967.799072 387.335815 411.544312 387.913483 784.603333 296.913239 305.456268 422.233765 216.566193 446.133789 315.076935 250.574188 747.939636 430.266327 444.608551 591.127258 606.284363 440.094757 605.578552 236.021774 739.434265 499.224579 1404.974976 350.061920 673.823853 274.652588 615.611816 194.246460 317.190247 328.819214 576.390015 619.645020 933.079834 251.787033 425.689026 680.879578 973.231079 225.386475 
Conv_219_param_0 358.505859 351.956696 407.354736 502.600952 320.315277 444.228851 348.187408 406.399994 574.163330 373.164978 594.165649 299.995392 678.216431 386.185608 327.783234 324.309235 428.494232 407.993713 576.070862 394.084839 210.945663 407.993713 432.053162 561.762390 448.828308 310.747894 371.300507 358.258942 454.316162 329.443939 428.141571 544.703674 358.012390 354.113007 200.846329 365.047028 497.791382 336.693848 425.340973 383.905548 460.754639 453.919708 378.046509 411.544312 450.382690 365.817169 335.607727 389.365265 544.989014 375.048309 436.769104 474.627747 319.724640 431.336639 331.121582 417.489563 503.087036 233.060928 372.097290 469.064026 461.163116 333.456421 270.933319 405.449738 548.436462 423.609131 436.769104 432.053162 372.363647 333.884460 623.357727 438.610443 396.185822 541.866638 262.193542 414.826141 388.202972 525.711975 356.052032 384.757385 577.029419 311.305817 240.384476 356.784637 290.285706 567.585388 488.902252 384.473022 445.369873 409.277740 309.086151 362.250702 321.701904 359.994476 386.759857 402.625397 
Conv_221_param_0 47.016632 132.162598 164.826355 174.561081 89.503098 127.000000 71.533554 73.473450 122.225563 33.937370 119.419655 105.046852 33.831425 123.737396 31.321774 32.923546 131.627533 134.764771 68.518440 206.589355 86.583221 112.207077 94.580360 53.037521 55.814590 99.577339 15.645813 85.953735 32.774193 44.294277 42.750820 44.113976 167.156815 156.213821 81.229233 158.017014 186.315186 134.277756 133.794235 56.055172 65.121681 102.886078 87.222000 191.106537 46.545456 78.484009 133.656738 139.163193 85.840263 64.604073 63.905651 77.733414 89.503098 60.656715 56.839161 50.095531 98.446632 36.882587 189.298401 53.124184 119.200737 110.773422 58.213070 143.067108 140.364807 90.942657 61.692600 91.583099 173.744827 123.973305 35.034481 94.649200 158.305542 132.634369 24.932516 147.113129 62.283524 75.477654 77.455627 83.632156 107.035393 31.565048 27.979345 29.184919 167.912201 210.604050 86.295952 23.800879 58.527454 121.087524 68.482361 87.105156 32.142365 29.992620 25.988810 137.109116 
Conv_222_param_0 595.526062 393.488647 287.716827 292.736084 236.236145 339.994781 499.224579 225.973938 256.252228 208.410263 436.769104 426.736664 208.243393 903.111084 322.499695 720.487549 337.130280 256.378510 251.057922 380.814056 276.550781 605.578552 254.746323 210.433655 278.028870 286.607178 275.233856 232.021408 375.048309 286.134216 526.776733 403.249603 246.070007 441.589142 293.893799 595.526062 216.206146 1043.514526 614.158203 358.505859 510.242279 363.262573 305.097961 253.011673 506.516052 314.505432 424.993469 735.253723 456.709381 438.980591 888.457703 225.777771 233.689133 310.377075 352.194977 571.012085 670.350525 379.979553 745.260742 764.426147 475.061188 461.163116 268.694214 201.312698 398.004578 378.321442 823.088623 232.852280 256.631470 149.738632 365.047028 833.641052 464.042816 425.689026 448.828308 619.645020 786.977295 360.243774 243.080368 419.171631 492.606049 125.650238 466.958710 189.574341 400.764252 258.031738 396.487793 593.826477 272.637329 450.772949 480.325012 382.494110 334.959442 451.947876 459.533569 678.216431 
Conv_225_param_0 176.936050 172.021164 365.817169 161.349869 271.924713 225.386475 228.555359 272.923401 173.051224 179.006195 174.913254 236.450912 190.546524 137.981964 199.613205 283.792694 106.947365 230.786163 180.873428 345.413025 186.448746 204.638870 185.385605 360.493408 198.243896 301.385864 226.761993 255.622604 245.142319 260.226105 189.160721 174.210312 144.017715 194.682632 98.372162 212.844513 243.080368 133.041428 187.524155 326.959137 281.032959 290.772491 154.911255 189.989777 263.521790 256.378510 171.003281 230.991119 196.744324 149.137619 294.893433 128.569458 259.447388 262.458130 224.220688 352.433594 372.897491 242.626862 248.657745 138.128525 239.278748 222.304276 185.650253 259.706451 184.203964 269.949158 112.986969 150.955307 141.203033 283.328979 283.947601 223.642303 
Conv_227_param_0 399.840118 244.451126 259.059753 271.215851 132.028427 166.301788 306.897949 155.003571 341.557465 167.049454 298.275238 318.745087 279.823547 164.721970 127.560570 348.888000 144.819595 600.336975 345.642517 147.029953 321.106171 30.556391 399.226410 217.289886 269.669250 243.763824 132.431778 316.226135 222.304276 444.228851 495.420959 341.333344 248.895691 266.628387 320.512634 535.176941 76.951477 218.751892 252.765793 413.507141 262.061462 218.384552 192.378693 198.850159 387.047607 309.822510 428.494232 339.772705 432.772034 291.097931 272.209320 279.974152 168.455963 209.585815 424.646545 412.196503 239.058823 216.566193 79.056534 178.147949 389.365265 565.733521 317.577545 387.047607 162.559998 719.491028 228.354691 194.974518 125.650238 171.907471 150.955307 103.459030 
Conv_229_param_0 218.936020 247.239548 135.962357 209.585815 211.116882 191.669861 199.460129 271.782654 180.246704 171.680527 243.080368 140.289108 157.252716 223.642303 148.796341 206.261703 109.652611 221.170074 162.357056 213.193436 190.267746 217.108521 225.973938 123.151512 167.695679 198.546570 99.883255 189.989777 147.530350 364.280121 125.528961 288.195007 287.876038 213.718979 189.023254 240.606842 181.758209 330.071075 188.885986 174.093704 293.065918 166.728210 263.388367 310.933655 183.166199 251.300476 208.912445 405.765991 167.156815 135.749481 372.363647 138.865997 220.420334 260.747864 209.924133 177.904236 236.021774 295.228149 299.822479 188.475357 202.251938 150.955307 184.596161 204.638870 121.767792 192.806519 329.861755 191.952774 196.744324 121.426704 246.070007 142.753021 
Conv_230_param_0 232.436096 464.872192 304.205841 317.577545 557.547668 824.393005 1036.755371 366.590546 370.771210 951.860962 577.991089 190.826126 832.973572 507.504395 544.703674 720.487549 176.455902 761.070984 485.253723 789.365723 480.325012 775.248901 1057.838379 567.275879 380.814056 591.799744 484.350098 295.731659 439.351349 893.033447 756.642883 74.783211 444.988892 426.736664 362.755920 320.315277 445.751495 576.390015 446.133789 277.140106 491.210571 472.472290 453.523987 629.010864 893.033447 951.860962 562.978333 413.836121 1080.918457 738.384644 452.734558 371.565704 361.998596 601.725830 750.096619 843.098877 566.349487 355.808472 504.550934 860.532654 516.063477 686.269104 747.939636 681.325500 544.703674 650.239990 380.257324 768.946045 305.456268 368.407928 216.566193 384.473022 
Conv_232_param_0 215.489639 48.780193 70.716690 66.657097 46.018402 64.444000 195.855423 72.208771 75.873978 56.444443 67.839333 82.622620 188.066528 243.535583 58.161003 55.481228 53.254711 94.511627 54.826305 67.452286 48.201630 52.396454 50.760342 98.521210 113.877411 61.634125 71.770416 41.469387 67.981178 56.591820 56.006889 67.803963 44.690033 81.637161 43.846256 44.415302 51.079342 65.548386 70.832245 96.618126 74.355629 159.666046 52.438709 91.518646 66.418793 54.642017 63.191448 145.875488 51.811951 74.611588 122.340546 254.124084 123.502373 45.791550 47.118839 57.289867 139.088776 72.128677 166.301788 58.109024 57.390999 75.609299 71.494225 73.266479 52.908054 158.982880 262.590607 168.455963 56.346619 94.787170 62.764481 77.686974 
Conv_233_param_0 256.126038 191.811203 238.401474 184.990036 165.035538 241.500458 133.382568 158.017014 291.914703 171.567276 169.223160 266.765137 162.865372 194.391632 223.258362 275.088318 129.079895 210.433655 259.447388 151.925232 203.677368 56.988605 376.677765 112.401039 265.675171 194.391632 92.495018 189.160721 276.403839 203.517990 220.607300 255.371628 161.149933 127.623161 172.021164 268.140198 177.418823 183.166199 137.981964 126.752434 196.744324 196.447128 173.166443 326.548645 359.496887 122.802643 436.769104 223.450165 276.845123 166.195526 418.497192 278.923309 204.477982 140.744583 181.758209 183.295273 137.471466 420.527069 134.974579 225.973938 199.002289 461.982239 363.262573 111.821152 121.881912 579.601135 124.447845 219.305222 146.863922 105.387360 241.276443 140.668472 
Conv_235_param_0 243.535583 188.202606 143.778885 211.288376 548.147522 225.386475 270.229614 372.630371 258.544739 134.277756 330.071075 149.308838 194.682632 203.041367 185.915649 283.947601 187.930634 245.373581 243.763824 239.719818 179.624313 203.836990 311.492218 200.691360 128.505936 182.140060 230.377319 196.447128 230.581558 204.961380 304.562073 268.002075 257.266083 201.937881 222.494446 353.631531 287.557770 259.966003 522.806030 193.236252 315.650482 567.895203 110.303650 244.451126 249.372955 227.158081 221.358292 212.844513 166.835144 333.456421 249.612289 268.694214 272.351837 189.023254 218.936020 225.581955 137.253830 170.442993 155.373947 209.248596 190.407028 182.140060 149.652481 582.848206 397.396484 127.748528 195.708054 419.848267 123.035004 279.673126 289.962097 190.546524 
Conv_236_param_0 400.147705 162.763458 270.089294 581.220093 375.318909 293.231110 201.781219 141.741684 399.226410 377.497833 797.229126 141.049896 399.226410 327.989899 213.543518 246.070007 206.753571 383.622406 222.494446 502.115845 236.881607 309.638092 349.356628 235.380997 277.140106 493.072998 193.523804 125.287094 429.555725 181.631287 299.477264 263.655334 285.192993 429.910736 488.443207 387.624451 501.148376 158.305542 671.648804 261.534454 292.078613 709.191528 201.468628 151.394638 159.568100 359.000702 325.934845 434.943146 247.474792 279.673126 457.915497 268.416931 146.781036 296.068298 173.860962 196.893265 133.041428 305.995300 137.326294 517.346619 183.166199 246.070007 381.652252 160.850952 636.709900 258.159790 233.060928 516.832581 274.362854 280.124939 981.494324 392.894257 
Conv_238_param_0 198.243896 100.345680 257.520782 274.652588 459.127991 328.404053 332.816376 184.334518 254.248291 242.853409 242.853409 319.136200 154.085312 214.423737 71.929207 149.137619 371.035675 292.736084 115.907310 401.073242 229.159470 371.831299 152.728134 268.002075 302.965637 439.351349 354.595764 125.046150 311.119629 297.592682 202.566971 241.724915 108.917923 225.581955 286.134216 203.836990 302.085938 206.425400 133.451004 225.191345 351.956696 191.247055 360.243774 373.432892 158.595123 229.563995 217.835846 247.004745 279.522827 476.366302 238.839310 272.066956 291.260925 273.066681 438.980591 239.058823 385.042206 358.012390 173.744827 271.498962 392.301666 298.446350 338.887299 110.585037 408.634735 266.765137 148.711258 271.215851 105.730080 123.973305 104.038399 262.723236 
Conv_242_param_0 380.535492 604.171875 373.701141 232.021408 271.924713 286.291687 196.893265 387.913483 497.315491 363.009064 248.183212 557.249084 319.724640 304.028046 401.382721 297.252563 321.106171 312.991577 651.053833 280.275848 143.145844 331.543671 435.671692 327.164795 270.933319 286.134216 223.642303 354.595764 447.284607 318.354950 328.196838 214.955368 255.497055 390.534546 169.775452 380.535492 86.814423 344.954895 272.923401 311.119629 277.435730 274.652588 239.058823 259.706451 77.733414 301.385864 252.031006 280.275848 325.323334 360.493408 306.716980 158.788773 237.097534 284.880615 292.900909 236.450912 339.550903 267.588470 358.258942 270.651398 396.185822 267.450897 215.311264 294.226257 381.652252 192.949554 275.525421 427.789459 394.383636 305.097961 314.695709 346.794678 
Conv_244_param_0 436.769104 160.751541 163.479568 207.247803 244.221603 410.894165 252.031006 398.920258 308.170624 288.195007 278.326385 111.629181 358.753113 419.509674 466.958710 95.133873 348.888000 309.086151 121.200371 201.312698 402.625397 229.563995 169.554108 470.761993 60.998123 252.765793 211.288376 231.814621 329.443939 167.479721 176.815765 428.494232 656.393677 318.160248 464.457153 361.244446 112.986969 539.338501 201.156998 144.578094 358.753113 222.684937 246.070007 280.578217 113.282227 309.638092 257.520782 233.479355 240.829636 135.255325 201.937881 125.407906 110.491081 266.765137 158.691879 349.591400 190.686218 249.852066 331.121582 185.517838 407.993713 337.348907 127.435570 190.407028 283.174744 244.221603 148.966782 168.565140 304.383850 185.385605 172.021164 129.594421 
Conv_246_param_0 155.932861 195.855423 225.191345 239.499084 234.532013 257.520782 240.162506 260.747864 296.913239 219.675674 174.913254 548.725708 554.575684 172.249008 221.546844 158.595123 210.604050 218.568069 270.089294 157.062805 156.120041 318.354950 249.372955 259.447388 208.577393 122.455742 225.386475 132.431778 338.006500 299.822479 211.288376 152.907700 186.582489 176.455902 260.486725 213.018845 229.159470 196.150833 218.201340 271.498962 155.466827 231.608185 223.066895 146.863922 271.357330 240.606842 142.753021 229.563995 266.219025 164.202026 276.992554 304.205841 284.880615 307.442078 239.499084 160.850952 196.595612 181.377960 208.243393 156.684341 170.666672 197.641342 187.794952 196.893265 193.379929 206.261703 215.489639 186.984909 247.474792 216.206146 141.510330 157.633942 
Conv_247_param_0 840.374817 344.954895 918.255981 257.776001 156.495789 227.356644 640.236328 537.388428 252.520386 1031.615234 291.424103 373.701141 468.641449 975.055298 518.377686 1034.693237 563.893738 633.222168 444.988892 431.336639 424.646545 291.097931 629.010864 910.222229 556.057739 1541.309570 555.167542 446.900330 169.113129 273.066681 1018.486511 365.560089 610.912537 534.078003 632.836975 520.712708 726.018127 540.178589 310.007141 416.486786 414.495605 239.940964 707.263062 154.911255 375.318909 551.635193 400.455750 280.578217 206.425400 776.985840 1016.993164 499.224579 645.800110 1012.046692 1032.639160 494.479095 515.807617 351.243744 400.147705 1101.518311 363.516418 381.093048 317.771545 331.121582 224.607941 354.595764 777.566528 338.226257 294.893433 1091.121094 745.260742 293.231110 
Conv_249_param_0 202.566971 65.614532 81.026794 64.380196 62.403072 75.259262 219.490295 57.799110 94.718132 45.630878 58.580181 71.969009 217.471573 247.474792 62.643547 58.317490 61.112782 94.033264 56.200520 57.492485 47.255814 44.264126 91.325844 111.152138 124.567047 75.918274 74.568810 51.240345 78.626358 42.443863 54.965343 96.047264 37.263039 67.000519 45.281338 75.085449 40.039410 60.883896 105.046852 137.036880 71.376511 205.609482 41.896908 69.544388 59.491310 48.927013 68.699417 139.536484 73.225227 66.966011 179.624313 229.766785 102.078491 54.734005 55.151825 70.144554 112.013779 62.946758 168.783905 44.628689 69.581596 69.544388 75.215729 71.025665 42.554974 193.523804 301.735504 134.277756 41.789204 91.006302 92.232628 62.764481 
Conv_250_param_0 102.886078 122.918716 136.964722 492.140015 308.536194 392.006042 250.333008 389.365265 254.871140 206.261703 188.885986 172.821259 325.119995 231.196442 81.997475 162.458466 374.778107 332.391052 316.226135 229.969940 273.353638 129.918076 112.303970 161.952682 174.795700 202.251938 520.192017 217.471573 131.961441 84.446754 237.530594 232.228577 354.113007 241.724915 238.401474 146.121353 148.034149 158.595123 273.066681 210.263535 380.814056 107.300331 252.765793 236.021774 114.781998 368.669037 199.920059 270.792297 177.904236 91.197754 180.496872 124.447845 93.965317 169.003250 183.166199 114.883392 322.499695 164.617722 140.592438 116.844566 125.771759 501.148376 135.466660 198.546570 261.140564 282.713043 345.413025 138.791885 237.313873 334.959442 161.952682 82.360985 
Conv_252_param_0 140.820786 197.942154 325.323334 241.724915 274.507660 268.555511 195.855423 503.574066 285.036713 236.021774 246.070007 264.728760 180.747742 184.858566 341.333344 446.133789 448.055115 197.641342 235.594208 288.835083 294.059906 164.202026 271.357330 592.473816 276.845123 206.261703 172.249008 242.853409 182.395508 241.724915 227.555557 196.893265 350.061920 145.630463 287.716827 171.115784 321.701904 207.413071 228.555359 203.517990 169.223160 197.191818 388.202972 245.373581 366.332397 214.423737 269.250519 333.670288 278.923309 356.784637 186.984909 260.878632 184.334518 266.355347 267.176178 684.013123 241.500458 196.893265 305.456268 187.119431 186.181824 447.284607 409.922760 233.899277 474.195068 277.435730 270.229614 300.341797 115.598221 315.842133 274.652588 286.607178 
Conv_253_param_0 216.026581 242.175049 199.766510 236.450912 186.984909 464.042816 143.145844 326.139191 441.964325 221.358292 242.626862 292.571442 221.924911 234.532013 507.009735 265.404083 296.068298 401.382721 308.719299 411.544312 307.988159 105.131767 200.227875 177.904236 223.258362 120.750229 158.885773 397.093140 243.992493 175.148819 179.376556 321.304504 178.637360 420.187408 401.382721 663.510193 218.751892 195.855423 332.603577 129.143997 145.223892 212.150085 162.661667 329.652710 185.121704 413.507141 104.540192 886.942871 374.778107 627.872070 196.003021 217.471573 376.950714 175.030960 232.228577 183.037292 516.319580 331.332489 194.246460 257.520782 124.686478 132.499237 319.136200 130.635864 555.760681 176.216797 392.894257 236.236145 259.318054 293.893799 302.613159 196.003021 
Conv_255_param_0 193.956741 133.451004 200.227875 272.923401 346.332886 191.387787 298.960907 210.263535 284.880615 359.745514 220.047379 235.380997 136.461700 250.815811 132.499237 236.881607 211.804565 240.606842 181.251572 330.910950 259.059753 210.263535 211.977173 268.694214 371.831299 161.450027 201.624802 218.384552 165.140320 292.242706 294.893433 258.673309 254.124084 163.994949 338.226257 361.746857 332.178802 109.284035 214.600662 188.612045 328.611511 290.610046 181.631287 328.404053 173.628845 224.607941 146.946899 193.092804 355.322418 374.238861 191.106537 204.800003 380.535492 158.209244 362.503143 330.910950 261.929504 230.173447 160.157639 274.507660 229.361557 286.134216 347.257690 95.203514 282.099792 283.174744 383.339722 160.256317 92.363640 134.904572 154.359650 289.800568 
Conv_256_param_0 575.752075 632.452271 540.459229 796.618713 512.504456 458.318939 651.461487 706.302795 332.603577 452.340881 627.115112 894.569214 
Conv_257_param_0 121.200371 109.468010 122.225563 
Conv_258_param_0 233.689133 401.382721 332.603577 359.496887 335.175262 367.626862 320.512634 345.413025 357.274719 271.357330 312.615387 343.814941 469.487366 409.600006 387.624451 369.980072 403.249603 385.327393 433.493347 405.765991 277.731995 404.818665 297.422516 403.875763 338.666656 333.884460 393.786530 312.991577 389.949036 426.386871 306.716980 280.881195 367.367218 367.626862 285.349426 436.402679 348.654144 405.449738 264.863556 363.009064 418.497192 417.824890 350.770050 326.753754 385.899109 481.213684 413.836121 363.516418 397.093140 294.059906 301.735504 322.100311 387.624451 401.073242 340.885986 323.301422 301.211334 338.887299 348.888000 351.006744 291.260925 353.151398 336.476074 337.348907 297.933563 405.133942 293.065918 336.911926 301.211334 297.082825 592.811401 361.495483 462.392883 387.624451 354.113007 421.208099 373.969818 397.700317 955.357239 325.730743 
Conv_259_param_0 575.752075 632.452271 540.459229 796.618713 512.504456 458.318939 651.461487 706.302795 332.603577 452.340881 627.115112 894.569214 
Conv_260_param_0 121.200371 109.468010 122.225563 
Conv_261_param_0 233.689133 401.382721 332.603577 359.496887 335.175262 367.626862 320.512634 345.413025 357.274719 271.357330 312.615387 343.814941 469.487366 409.600006 387.624451 369.980072 403.249603 385.327393 433.493347 405.765991 277.731995 404.818665 297.422516 403.875763 338.666656 333.884460 393.786530 312.991577 389.949036 426.386871 306.716980 280.881195 367.367218 367.626862 285.349426 436.402679 348.654144 405.449738 264.863556 363.009064 418.497192 417.824890 350.770050 326.753754 385.899109 481.213684 413.836121 363.516418 397.093140 294.059906 301.735504 322.100311 387.624451 401.073242 340.885986 323.301422 301.211334 338.887299 348.888000 351.006744 291.260925 353.151398 336.476074 337.348907 297.933563 405.133942 293.065918 336.911926 301.211334 297.082825 592.811401 361.495483 462.392883 387.624451 354.113007 421.208099 373.969818 397.700317 955.357239 325.730743 
Conv_0 127.403336 
Conv_3 38.323193 
Conv_4 151.050079 
Conv_6 38.323193 
Conv_8 114.546303 
Conv_9 86.023018 
Conv_21 82.472435 
Conv_23 124.270920 
Conv_24 110.362221 
Conv_36 63.207794 
Conv_38 112.244362 
Conv_39 83.148666 
Conv_51 83.097717 
Conv_53 122.882660 
Conv_54 107.315956 
Conv_57 74.565620 
Conv_58 109.433167 
Conv_60 74.565620 
Conv_62 117.198639 
Conv_63 132.010223 
Conv_75 117.159821 
Conv_77 146.299530 
Conv_78 88.552971 
Conv_90 114.812248 
Conv_92 172.628708 
Conv_93 113.800735 
Conv_105 106.170517 
Conv_107 195.334106 
Conv_108 116.503273 
Conv_120 107.818298 
Conv_122 173.124924 
Conv_123 104.575050 
Conv_135 83.328232 
Conv_137 118.309235 
Conv_138 123.523567 
Conv_150 85.961403 
Conv_152 122.993965 
Conv_153 118.991959 
Conv_165 96.104065 
Conv_167 157.748642 
Conv_168 125.631317 
Conv_171 121.762917 
Conv_172 134.172424 
Conv_174 121.762917 
Conv_176 165.596390 
Conv_177 108.242004 
Conv_189 81.014847 
Conv_191 122.279854 
Conv_192 131.889328 
Conv_204 116.850677 
Conv_206 180.883865 
Conv_207 127.584122 
Conv_219 99.959930 
Conv_221 175.832077 
Conv_222 147.735931 
Conv_225 92.325989 
Conv_227 66.988968 
Conv_229 70.851631 
Conv_230 69.644501 
Conv_232 89.902382 
Conv_233 66.988968 
Conv_235 86.758667 
Conv_236 68.590088 
Conv_238 86.298706 
Conv_242 92.428741 
Conv_244 75.306290 
Conv_246 69.891685 
Conv_247 81.012878 
Conv_249 92.229225 
Conv_250 75.306290 
Conv_252 91.416336 
Conv_253 85.767807 
Conv_255 96.311821 
Conv_256 81.762680 
Conv_257 28.597750 
Conv_258 28.597750 
Conv_259 78.023636 
Conv_260 26.794445 
Conv_261 26.794445 
